{"merges": [["e", "</w>"], ["t", "h"], [",", "</w>"], ["t", "</w>"], ["s", "</w>"], ["d", "</w>"], ["o", "u"], ["e", "r"], ["y", "</w>"], ["i", "n"], [":", "</w>"], ["a", "n"], ["o", "r"], ["o", "</w>"], [".", "</w>"], ["e", "n"], ["a", "r"], ["o", "n"], ["l", "l"], ["h", "a"], ["th", "e</w>"], ["i", "s</w>"], ["f", "</w>"], ["e", "s"], ["y", "ou"], ["I", "</w>"], ["ll", "</w>"], ["t", "o</w>"], ["an", "d</w>"], ["o", "w"], ["e", "a"], ["e", ",</w>"], ["r", "</w>"], ["in", "g"], ["w", "i"], ["o", "m"], [";", "</w>"], ["s", "t"], ["o", "f</w>"], ["th", "</w>"], ["h", "i"], ["v", "e</w>"], ["a", "</w>"], ["n", "o"], ["m", "y</w>"], ["in", "</w>"], ["h", "e</w>"], ["?", "</w>"], ["s", "e"], ["l", "i"], ["c", "h"], ["th", "e"], ["r", "e"], ["you", "</w>"], ["!", "</w>"], ["A", "n"], ["o", "o"], ["t", "i"], ["d", ",</w>"], ["r", "i"], ["g", "h"], ["m", "a"], ["s", ",</w>"], ["r", "a"], ["no", "t</w>"], ["tha", "t</w>"], ["m", "</w>"], ["e", "d</w>"], ["An", "d</w>"], ["'", "s</w>"], ["en", "</w>"], ["on", "</w>"], ["m", "e</w>"], ["y", ",</w>"], ["l", "d</w>"], ["ou", "</w>"], ["l", "a"], ["t", ",</w>"], ["a", "s</w>"], ["u", "t</w>"], ["wi", "th</w>"], ["ha", "t</w>"], ["l", "e"], ["b", "e</w>"], ["you", "r</w>"], ["b", "e"], ["O", ":</w>"], ["k", "</w>"], ["d", "i"], ["s", "h"], ["i", "t</w>"], ["ch", "</w>"], ["r", "o"], ["k", "e</w>"], ["f", "or</w>"], ["s", "i"], ["u", "n"], ["E", "N"], ["I", "N"], ["f", "a"], ["ha", "ve</w>"], ["l", "</w>"], ["c", "e</w>"], ["S", ":</w>"], ["s", "a"], ["e", ".</w>"], ["s", "u"], ["e", "e"], ["ing", "</w>"], ["A", "R"], ["'", "d</w>"], ["n", "</w>"], ["th", "ou</w>"], ["u", "r"], ["l", "o"], ["t", "a"], ["w", "h"], ["I", "O:</w>"], ["th", "y</w>"], ["s", "p"], ["T", "h"], ["i", "t"], ["ou", "ld</w>"], ["l", "y</w>"], ["c", "a"], ["W", "h"], ["U", "S:</w>"], ["wi", "ll</w>"], ["b", "ut</w>"], ["f", "or"], ["c", "om"], ["i", "r"], ["w", "a"], ["c", "on"], ["r", "u"], ["en", "t"], ["T", "o</w>"], ["w", "or"], ["d", "a"], ["w", "e"], ["e", "v"], ["b", "y</w>"], ["ow", "</w>"], ["U", "C"], ["p", "</w>"], ["s", ".</w>"], ["sha", "ll</w>"], ["a", "ll</w>"], ["d", ".</w>"], ["m", "i"], ["hi", "m</w>"], ["c", "e"], ["s", "o</w>"], ["IN", "G"], ["A", "N"], ["m", "u"], ["d", "s</w>"], ["c", "k"], ["a", "t"], ["E", "R"], ["m", "e"], ["oo", "d</w>"], ["O", "R"], ["gh", "t</w>"], ["m", "o"], ["E", "T"], ["se", "l"], ["d", "e"], ["d", "o</w>"], ["e", "t</w>"], ["q", "u"], ["h", "er</w>"], ["hi", "m"], ["'", "</w>"], ["gh", "t"], ["o", ",</w>"], ["'", "ll</w>"], ["A", ":</w>"], ["b", "o"], ["K", "ING"], ["y", ".</w>"], ["g", "a"], ["B", "ut</w>"], ["f", "rom</w>"], ["u", "s</w>"], ["c", "i"], ["I", "C"], ["g", "ood</w>"], ["d", "o"], ["f", "i"], ["i", "f</w>"], ["O", "L"], ["h", "o"], ["u", "p"], ["n", "e"], ["v", "i"], ["t", "e"], ["E", "L"], ["f", "u"], ["h", "ea"], ["p", "o"], ["p", "a"], ["I", "US:</w>"], ["KING", "</w>"], ["AR", "D"], ["f", "e"], ["h", "e"], ["w", "ould</w>"], ["F", "or</w>"], ["the", "ir</w>"], ["-", "-"], ["S", "T"], ["M", "y</w>"], ["o", "f"], ["the", "y</w>"], ["a", "m</w>"], ["b", "a"], ["I", "'ll</w>"], ["v", "e"], ["o", "l"], ["E", ":</w>"], ["g", "i"], ["g", "e</w>"], ["O", "N"], ["g", "u"], ["b", "le</w>"], ["d", ";</w>"], ["t", "ru"], ["g", "</w>"], ["d", ":</w>"], ["ll", ",</w>"], ["A", "s</w>"], ["b", "ro"], ["I", "I"], ["s", ":</w>"], ["g", "e"], ["A", "</w>"], ["g", "ra"], ["p", "ro"], ["t", ".</w>"], ["gh", "</w>"], ["n", "i"], ["s", ";</w>"], ["s", "on"], ["li", "ke</w>"], ["ma", "ke</w>"], ["you", ",</w>"], ["k", "ing"], ["n", "a"], ["ARD", "</w>"], ["R", "O"], ["T", "IO:</w>"], ["w", "</w>"], ["ma", "y</w>"], ["ET", ":</w>"], ["mu", "st</w>"], ["m", "p"], ["A", "U"], ["g", "o"], ["d", "u"], ["Y", "</w>"], ["E", "</w>"], ["Y", "ou</w>"], ["the", "m</w>"], ["ga", "in"], ["t", "o"], ["f", "ri"], ["sp", "ea"], ["whi", "ch</w>"], ["K", ":</w>"], ["I", "f</w>"], ["i", "d</w>"], ["C", "A"], ["IC", "H"], ["R", "ICH"], ["t", "s</w>"], ["D", "U"], ["DU", "K"], ["ha", "d</w>"], ["DUK", "E</w>"], ["b", "u"], ["p", "p"], ["H", "a"], ["k", "now</w>"], ["e", "l"], ["r", "y</w>"], ["EN", "TIO:</w>"], ["s", "o"], ["G", "o"], ["ER", ":</w>"], ["O", "</w>"], ["Y", ":</w>"], ["O", ",</w>"], ["H", "e</w>"], ["IN", "C"], ["p", "er"], ["e", "y"], ["d", "s,</w>"], ["sir", ",</w>"], ["fu", "l</w>"], ["F", "ir"], ["sa", "y</w>"], ["d", "y</w>"], ["sel", "f"], ["A", "B"], ["Whi", "ch</w>"], ["su", "ch</w>"], ["e", "x"], ["k", ",</w>"], ["ta", "ke</w>"], ["a", "gain"], ["sh", "</w>"], ["p", "la"], ["--", "</w>"], ["mo", "st</w>"], ["s", "?</w>"], ["m", ",</w>"], ["lo", "ve</w>"], ["I", "n</w>"], ["L", "O"], ["gi", "ve</w>"], ["I", ":</w>"], ["y", "et</w>"], ["W", "ith</w>"], ["RICH", "ARD</w>"], ["Fir", "st</w>"], ["c", "oun"], ["E", "ST"], ["fri", "en"], ["O", "f</w>"], ["t", ":</w>"], ["c", "u"], ["a", "l"], ["s", "!</w>"], ["G", "LO"], ["GLO", "UC"], ["GLOUC", "EST"], ["GLOUCEST", "ER:</w>"], ["a", "c"], ["E", "EN"], ["L", "or"], ["M", "a"], ["L", "I"], ["t", "y</w>"], ["p", "e"], ["y", ";</w>"], ["d", "?</w>"], ["Q", "U"], ["QU", "EEN"], ["V", "INC"], ["VINC", "ENTIO:</w>"], ["i", "l"], ["y", ":</w>"], ["O", "F"], ["OF", "</w>"], ["H", "ow</w>"], ["i", "g"], ["v", "o"], ["lor", "d,</w>"], ["H", "EN"], ["d", "'s</w>"], ["p", "ri"], ["p", "ra"], ["ti", "me</w>"], ["k", "now"], ["'", "tis</w>"], ["S", "o</w>"], ["HEN", "R"], ["HENR", "Y</w>"], ["E", "S"], ["d", "!</w>"], ["I", "s</w>"], ["a", "f"], ["ma", "de</w>"], ["h", "u"], ["QUEEN", "</w>"], ["Y", "our</w>"], ["m", "b"], ["Y", "OR"], ["YOR", "K:</w>"], ["j", "o"], ["W", "e</w>"], ["les", "s</w>"], ["n", ",</w>"], ["th", ",</w>"], ["IN", "IUS:</w>"], ["l", "u"], ["be", "t"], ["k", "s</w>"], ["i", "s"], ["P", "ET"], ["an", "y</w>"], ["u", "se</w>"], ["I", "t</w>"], ["'", "st</w>"], ["ar", "t</w>"], ["'", "T"], ["E", "D"], ["ED", "W"], ["wa", "y</w>"], ["Wh", "y,</w>"], ["G", "R"], ["mu", "ch</w>"], ["T", "H"], ["U", "M"], ["M", "I"], ["p", "lea"], ["M", "EN"], ["a", "d"], ["L", "E"], ["L", "UC"], ["m", "y"], ["I", "S"], ["can", "not</w>"], ["no", "ble</w>"], ["con", "d</w>"], ["c", "o"], ["do", "th</w>"], ["t", "u"], ["M", "E"], ["k", "in"], ["d", "war"], ["S", "e"], ["O", "r</w>"], ["E", "dwar"], ["RO", "ME"], ["ROME", "O:</w>"], ["MEN", "EN"], ["MENEN", "IUS:</w>"], ["N", "o"], ["R", "i"], ["B", "y</w>"], ["thin", "k</w>"], ["nes", "s</w>"], ["a", "y,</w>"], ["PET", "R"], ["PETR", "UC"], ["PETRUC", "H"], ["PETRUCH", "IO:</w>"], ["Go", "d</w>"], ["spea", "k</w>"], ["'", "d,</w>"], ["j", "u"], ["him", ".</w>"], ["a", "s"], ["C", "ome,</w>"], ["A", "y,</w>"], ["M", "AR"], ["ne", "w"], ["H", "A"], ["ON", "T"], ["v", "an"], ["C", "OR"], ["COR", "I"], ["CORI", "OL"], ["CORIOL", "AN"], ["bro", "ther"], ["Se", "cond</w>"], ["be", "ing</w>"], ["k", "e"], ["CORIOLAN", "US:</w>"], ["you", ".</w>"], ["man", ":</w>"], ["y", "!</w>"], ["c", "t</w>"], ["B", "e"], ["t", "ri"], ["c", "row"], ["fa", "ir</w>"], ["t", "'s</w>"], ["R", "ome"], ["B", "A"], ["da", "u"], ["ow", "n</w>"], ["t", ";</w>"], ["b", "loo"], ["ri", "e"], ["z", "en"], ["no", "t,</w>"], ["'", "er</w>"], ["gent", "le"], ["Lor", "d</w>"], ["I", "V"], ["D", ":</w>"], ["g", "reat</w>"], ["II", "I:</w>"], ["'", "t</w>"], ["p", "re"], ["t", "le</w>"], ["y", "s</w>"], ["the", "m"], ["W", "ar"], ["s", "weet</w>"], ["War", "wi"], ["y", "?</w>"], ["C", "a"], ["H", "is</w>"], ["be", "fore</w>"], ["A", "D"], ["U", "n"], ["'T", "is</w>"], ["IS", "AB"], ["ISAB", "EL"], ["ISABEL", "L"], ["ISABELL", "A:</w>"], ["ton", "gu"], ["p", "u"], ["R", "AN"], ["L", "et</w>"], ["An", "d,</w>"], ["J", "U"], ["JU", "LI"], ["JULI", "ET:</w>"], ["LE", "ONT"], ["LEONT", "ES:</w>"], ["s", "la"], ["da", "y</w>"], ["ti", "on</w>"], ["r", "y,</w>"], ["u", "s,</w>"], ["thou", "gh</w>"], ["B", "u"], ["L", "AD"], ["LAD", "Y</w>"], ["o", "p"], ["EN", "C"], ["ENC", "E:</w>"], ["ir", ",</w>"], ["s", "wor"], ["B", "R"], ["se", ":</w>"], ["C", "iti"], ["Citi", "zen"], ["lea", "ve</w>"], ["H", "en"], ["again", "st</w>"], ["n", ".</w>"], ["N", "ay,</w>"], ["ch", ",</w>"], ["y", "'s</w>"], ["S", "IC"], ["SIC", "INIUS:</w>"], ["now", ",</w>"], ["bo", "th</w>"], ["t", "w"], ["loo", "k</w>"], ["tho", "se</w>"], ["P", "ro"], ["li", "e"], ["me", ";</w>"], ["ca", "use</w>"], ["LUC", "IO:</w>"], ["o", "ther</w>"], ["No", "t</w>"], ["to", "-"], ["Ri", "char"], ["EDW", "ARD</w>"], ["IV", ":</w>"], ["t", "ra"], ["m", "s</w>"], ["Ha", "ve</w>"], ["i", "ve</w>"], ["Y", "or"], ["u", "l"], ["o", "'</w>"], ["b", "ra"], ["Th", "y</w>"], ["k", ".</w>"], ["t", "?</w>"], ["ELI", "Z"], ["ELIZ", "AB"], ["ELIZAB", "ETH"], ["ELIZABETH", ":</w>"], ["un", "to</w>"], ["f", "t</w>"], ["su", "b"], ["tru", "e</w>"], ["hu", "s"], ["E", "n"], ["GR", "E"], ["I", "AN"], ["pe", "op"], ["lit", "tle</w>"], ["d", "st</w>"], [",", "--</w>"], ["na", "me</w>"], ["S", "</w>"], ["ro", "y"], ["C", "L"], ["mo", "ther"], ["I", ",</w>"], ["Now", ",</w>"], ["li", "fe</w>"], ["W", "AR"], ["WAR", "W"], ["WARW", "IC"], ["WARWIC", "K:</w>"], ["Citizen", ":</w>"], ["U", "T"], ["bet", "ter</w>"], ["king", ",</w>"], ["ha", "pp"], ["N", "ur"], ["d", "ly</w>"], ["n", ":</w>"], ["HA", "M"], ["HAM", ":</w>"], ["tw", "o</w>"], ["CA", "P"], ["CAP", "U"], ["CAPU", "LET:</w>"], ["W", "ell,</w>"], ["S", "hall</w>"], ["h", ",</w>"], ["p", "i"], ["l", "y,</w>"], ["s", "'</w>"], ["BR", "UT"], ["BRUT", "US:</w>"], ["B", "UC"], ["BUC", "KING"], ["BUCKING", "HAM:</w>"], ["a", "wa"], ["t", "s,</w>"], ["W", "ill</w>"], ["F", "rom</w>"], ["kee", "p</w>"], ["b", "id</w>"], ["no", "thing</w>"], ["c", "lo"], ["wor", "l"], ["B", "OLING"], ["BOLING", "BRO"], ["BOLINGBRO", "K"], ["BOLINGBROK", "E:</w>"], ["T", "RAN"], ["TRAN", "IO:</w>"], ["who", "se</w>"], ["an", "s"], ["b", "ring</w>"], ["self", ",</w>"], ["S", "a"], ["Nur", "se:</w>"], ["w", "o"], ["j", "e"], ["pra", "y</w>"], ["d", "s.</w>"], ["p", "s</w>"], ["dou", "b"], ["w", "ron"], ["in", "t</w>"], ["T", "a"], ["d", "ra"], ["MAR", "G"], ["MARG", "AR"], ["MARGAR", "ET:</w>"], ["ES", "S</w>"], ["fin", "d</w>"], ["K", "ing</w>"], ["MI", "L"], ["O", "ur</w>"], ["ey", "es</w>"], ["Wh", "y</w>"], ["P", "e"], ["re", "me"], ["Y", "et</w>"], ["dau", "ghter"], ["com", "for"], ["S", "he</w>"], ["B", "o"], ["vo", "i"], ["youn", "g</w>"], ["AN", "G"], ["ANG", "ELO:</w>"], ["H", "OR"], ["me", ":</w>"], ["qu", "i"], ["n", "'d</w>"], ["p", ",</w>"], ["C", "laren"], ["EL", ":</w>"], ["K", "A"], ["IN", "A:</w>"], ["Mar", "ci"], ["L", "i"], ["lon", "g</w>"], ["y", "ear"], ["KA", "THAR"], ["KATHAR", "INA:</w>"], ["ca", "me</w>"], ["thou", "ght</w>"], ["f", ",</w>"], ["me", "?</w>"], ["H", "ere</w>"], ["D", "u"], ["En", "g"], ["M", "P"], ["a", "b"], ["el", "se</w>"], ["ce", ":</w>"], ["la", "w"], ["hear", "d</w>"], ["an", "d,</w>"], ["c", "la"], ["graci", "ous</w>"], ["D", "o</w>"], ["in", "to</w>"], ["lo", "ve,</w>"], ["g", "rie"], ["ES", "CA"], ["ESCA", "L"], ["ESCAL", "US:</w>"], ["t", "!</w>"], ["s", "lee"], ["lo", "ve"], ["of", "f</w>"], ["fe", "c"], ["S", "ir,</w>"], ["c", "</w>"], ["th", ".</w>"], ["lor", "d.</w>"], ["AN", "D:</w>"], ["coun", "t"], ["hea", "ven</w>"], ["there", "fore</w>"], ["Du", "ke</w>"], ["DUC", "H"], ["sta", "y</w>"], ["sin", "ce</w>"], ["well", ".</w>"], ["fir", "st</w>"], ["ma", "kes</w>"], [",", "--"], ["my", "self</w>"], ["roy", "al</w>"], ["Pro", "vo"], ["RO", "S"], ["fa", "ul"], ["f", "o"], ["for", "th</w>"], ["father", ",</w>"], ["on", "ce</w>"], ["k", "'d</w>"], ["I", "A:</w>"], ["m", ".</w>"], ["p", "t</w>"], ["do", "st</w>"], ["V", "I:</w>"], ["CA", "MIL"], ["CAMIL", "LO:</w>"], ["thou", "sand</w>"], ["E", "ven</w>"], ["Edwar", "d</w>"], ["DUCH", "ESS</w>"], ["l", "y.</w>"], ["n", "s</w>"], ["L", "e"], ["C", "ome</w>"], ["d", "-"], ["vere", "ig"], ["HOR", "T"], ["HORT", "EN"], ["HORTEN", "S"], ["Bu", "t,</w>"], ["of", "fi"], ["tur", "n</w>"], ["A", "ll</w>"], ["p", "her"], ["so", "vereig"], ["F", "R"], ["FR", "I"], ["FRI", "AR"], ["FRIAR", "</w>"], ["HORTENS", "IO:</w>"], ["ce", ";</w>"], ["vir", "tu"], ["ter", ",</w>"], ["U", "pon</w>"], ["i", "'</w>"], ["A", "re</w>"], ["la", "u"], ["T", "y"], ["wil", "t</w>"], ["thou", ",</w>"], ["BA", "P"], ["BAP", "T"], ["BAPT", "IST"], ["BAPTIST", "A:</w>"], ["W", "ould</w>"], ["rou", "gh</w>"], ["C", "O"], ["CO", "MINIUS:</w>"], ["I", "n"], ["li", "fe,</w>"], ["M", "ur"], ["AUT", "OL"], ["AUTOL", "Y"], ["AUTOLY", "C"], ["AUTOLYC", "US:</w>"], ["C", "on"], ["g", ",</w>"], [".", "'</w>"], ["lor", "d</w>"], ["sir", ".</w>"], ["ma", "i"], ["CL", "AR"], ["CLAR", "ENCE:</w>"], ["u", "t"], ["M", "ore</w>"], ["father", "'s</w>"], ["Thir", "d</w>"], ["'", "d.</w>"], ["v", "y</w>"], ["shal", "t</w>"], ["C", "low"], ["Provo", "st:</w>"], ["u", "s.</w>"], ["F", "or"], ["self", ".</w>"], ["wor", "d</w>"], ["happ", "y</w>"], ["van", "t:</w>"], ["E", "Y:</w>"], ["N", "OR"], ["B", "EN"], ["BEN", "V"], ["BENV", "OLIO:</w>"], ["Clow", "n:</w>"], ["tongu", "e</w>"], ["g", "s</w>"], ["k", "s,</w>"], ["derer", ":</w>"], ["un", "c"], ["GR", "UMIO:</w>"], ["P", "ROS"], ["PROS", "P"], ["PROSP", "ERO:</w>"], ["di", "e</w>"], ["y", "e"], ["la", "y</w>"], ["sa", "id</w>"], ["than", "k</w>"], ["re", "t"], ["li", "f"], ["Mur", "derer:</w>"], ["MER", "C"], ["MERC", "UTIO:</w>"], ["he", "'s</w>"], ["ce", "i"], ["di", "er"], ["k", "is"], ["LUC", "ENTIO:</w>"], ["R", "e"], ["b", "rea"], ["H", "ere"], ["W", "ere</w>"], ["o", "ther"], ["Ta", "ke</w>"], ["pro", "ve</w>"], ["mist", "res"], ["her", ",</w>"], ["L", "AND:</w>"], ["Ser", "vant:</w>"], ["P", "O"], ["PO", "MP"], ["y", "i"], ["ser", "vi"], ["on", "ly</w>"], ["sir", ";</w>"], ["ju", "sti"], ["G", "ive</w>"], ["L", "oo"], ["ta", "in</w>"], ["sub", "je"], ["D", "o"], ["L", "u"], ["P", "AU"], ["PAU", "LINA:</w>"], ["gain", "st</w>"], ["wor", "ds</w>"], ["besee", "ch</w>"], ["chil", "d"], ["A", "t</w>"], ["POMP", "EY:</w>"], ["GRE", "MIO:</w>"], ["'", "t.</w>"], ["him", "self</w>"], [",", "'</w>"], ["V", "OL"], ["VOL", "UM"], ["VOLUM", "N"], ["VOLUMN", "IA:</w>"], ["M", "u"], ["POLI", "X"], ["POLIX", "EN"], ["POLIXEN", "ES:</w>"], ["AN", "T"], ["A", "u"], ["W", "as</w>"], ["him", ";</w>"], ["G", "ent"], ["ca", "u"], ["so", ".</w>"], ["b", "i"], ["Ser", "ving"], ["Serving", "man:</w>"], ["HA", "ST"], ["HAST", "ING"], ["HASTING", "S:</w>"], ["B", "ER"], ["G", "ON"], ["kin", "d</w>"], ["of", "fen"], ["to", "ge"], ["S", "u"], ["no", "t.</w>"], ["Gent", "le"], ["af", "ter</w>"], ["o", "'"], ["si", "on</w>"], ["m", "'d</w>"], ["o", ".</w>"], ["T", ":</w>"], ["Ty", "bal"], ["L", "AU"], ["LAU", "R"], ["LAUR", "ENCE:</w>"], ["hel", "p</w>"], ["pur", "po"], ["war", "ran"], ["wi", "fe</w>"], ["par", "don</w>"], ["mer", "c"], ["le", "t's</w>"], ["n", "ur"], ["mor", "row"], ["qu", "een</w>"], ["B", "Y:</w>"], ["re", "por"], ["t", "ly</w>"], ["wh", "y</w>"], ["ne", "'er</w>"], ["him", ":</w>"], ["d", "s:</w>"], ["p", "lu"], ["sa", "w</w>"], ["kin", "d"], ["ch", "'d</w>"], ["ro", "s"], ["lor", "ds,</w>"], ["Richar", "d</w>"], ["CLI", "F"], ["CLIF", "F"], ["NOR", "TH"], ["NORTH", "UM"], ["NORTHUM", "BER"], ["NORTHUMBER", "LAND:</w>"], ["ans", "wer</w>"], ["sen", "d</w>"], ["frien", "ds</w>"], ["I", "D"], ["le", "t"], ["you", "?</w>"], ["sa", "ve</w>"], ["un", "der"], ["le", "ft</w>"], ["v", "a"], ["lo", "s"], ["du", "ke</w>"], ["for", "d,</w>"], ["M", "on"], ["B", "i"], ["su", "f"], ["sen", "ger"], ["Thou", "gh</w>"], ["z", "e</w>"], ["jo", "y</w>"], ["bloo", "dy</w>"], ["AN", "N"], ["ANN", "E:</w>"], ["spea", "k"], ["sol", "dier"], ["wor", "thy</w>"], ["new", "s</w>"], ["you", ";</w>"], ["po", "s"], ["H", "er</w>"], ["cla", "i"], ["Hen", "ry</w>"], ["C", "lif"], ["s", "wear</w>"], ["P", "R"], ["PR", "INC"], ["F", "ran"], ["S", "ig"], ["Warwi", "ck</w>"], ["ON", "E:</w>"], ["ER", "D"], ["IAN", ":</w>"], ["st", "ron"]], "token_to_ids": {"chastise</w>": 0, "shines</w>": 1, "tinent</w>": 2, "Whit": 3, "If</w>": 4, "Seventh</w>": 5, "mest,</w>": 6, "happiness</w>": 7, "ces.</w>": 8, "dead.</w>": 9, "sation</w>": 10, "ck,</w>": 11, "ye.</w>": 12, "head": 13, "da": 14, "ght;</w>": 15, "lades,</w>": 16, "cent,</w>": 17, "enes": 18, "read!</w>": 19, "il</w>": 20, "cker</w>": 21, "merit</w>": 22, "thee": 23, "erona": 24, "ght": 25, "quisite</w>": 26, "jet</w>": 27, "mad": 28, "f": 29, "son.</w>": 30, "feast?</w>": 31, "millo.</w>": 32, "thine.</w>": 33, "pen.</w>": 34, "steads</w>": 35, "desig": 36, "eyed</w>": 37, "rupt</w>": 38, "chani": 39, "vey": 40, "m.</w>": 41, "sun,</w>": 42, "nit": 43, "ban</w>": 44, "were": 45, "reater": 46, "cei": 47, "mily</w>": 48, "this</w>": 49, "ull</w>": 50, "bowel": 51, "ges:</w>": 52, "Relenting</w>": 53, "perish,</w>": 54, "y's</w>": 55, "meed</w>": 56, "vining</w>": 57, "where</w>": 58, "swor": 59, "horu": 60, "mothered</w>": 61, "against</w>": 62, "whore</w>": 63, "money</w>": 64, "gister": 65, "splay</w>": 66, "listering</w>": 67, "cured</w>": 68, "ARD": 69, "close:</w>": 70, "despise": 71, "cure": 72, "velope</w>": 73, "solel": 74, "est.</w>": 75, "taly</w>": 76, "facing": 77, "chery,</w>": 78, "ate,</w>": 79, "gear": 80, "bal": 81, "subur": 82, "domineer": 83, "low</w>": 84, "tility</w>": 85, "put</w>": 86, "tuner": 87, "cats</w>": 88, "tons</w>": 89, "water</w>": 90, "dare</w>": 91, "profiting</w>": 92, "thes,</w>": 93, "eaten</w>": 94, "earing</w>": 95, "oler</w>": 96, "mild</w>": 97, "gallops</w>": 98, "ppeare": 99, "t.</w>": 100, "roops</w>": 101, "gs</w>": 102, "severity</w>": 103, "rules</w>": 104, "rates</w>": 105, "uneas": 106, "olen": 107, "relling": 108, "whist,</w>": 109, "mperi": 110, "buti": 111, "destru": 112, "shell,</w>": 113, "reen'd</w>": 114, "evening</w>": 115, "white</w>": 116, "cing": 117, "close": 118, "centuries</w>": 119, "eeling</w>": 120, "abun": 121, "showing</w>": 122, "keli": 123, "wi'</w>": 124, "rous,</w>": 125, "ises</w>": 126, "illed</w>": 127, "ut!</w>": 128, "losing</w>": 129, "ropes,</w>": 130, "shing,</w>": 131, "here.</w>": 132, "No,</w>": 133, "sing,</w>": 134, "ranean</w>": 135, "rist</w>": 136, "liest": 137, "eath": 138, "kin": 139, ":</w>": 140, "yester": 141, "reaten</w>": 142, "When</w>": 143, "wits</w>": 144, "this!</w>": 145, "plau": 146, "pit</w>": 147, "washed</w>": 148, "ces,</w>": 149, "fares:</w>": 150, "ter</w>": 151, "trary,</w>": 152, "zens</w>": 153, "ones.</w>": 154, "vent;</w>": 155, "entire,</w>": 156, "dole": 157, "big": 158, "he's</w>": 159, "millo,</w>": 160, "tunate</w>": 161, "hate.</w>": 162, "reasures</w>": 163, "roof": 164, "spirator": 165, "twere</w>": 166, "lad?</w>": 167, "prate</w>": 168, "garet.</w>": 169, "shalt</w>": 170, "upright,</w>": 171, "rol</w>": 172, "S:</w>": 173, "whereat</w>": 174, "Peace": 175, "fested</w>": 176, "Where,</w>": 177, "lone,</w>": 178, "still,</w>": 179, "lullaby</w>": 180, "show": 181, "neat's</w>": 182, "vita": 183, "ither</w>": 184, "Where": 185, "ceit?</w>": 186, "rey:</w>": 187, "peer": 188, "se.</w>": 189, "bestir": 190, "Per": 191, "stay,</w>": 192, "Bight</w>": 193, "queen</w>": 194, "isely</w>": 195, "resolute</w>": 196, "abe": 197, "VOLUMNIA:</w>": 198, "mes!</w>": 199, "fine": 200, "tition</w>": 201, "rack,</w>": 202, "rie": 203, "levi": 204, "tack": 205, "ise</w>": 206, "pines</w>": 207, "ween</w>": 208, "ppe": 209, "solen": 210, "Taste</w>": 211, "ite": 212, "pother</w>": 213, "thee.</w>": 214, "vell": 215, "sted</w>": 216, "lat</w>": 217, "bon,</w>": 218, "stir</w>": 219, "ckery</w>": 220, "ut,</w>": 221, "leaching</w>": 222, "profit.</w>": 223, "women.</w>": 224, "one": 225, "espised</w>": 226, "tested</w>": 227, "Duke</w>": 228, "remes?</w>": 229, "my": 230, "don": 231, "ken'd</w>": 232, "thon": 233, "utes</w>": 234, "compromise</w>": 235, "supre": 236, "owes.</w>": 237, "ppre": 238, "tutor": 239, "You</w>": 240, "charity</w>": 241, "ats</w>": 242, "royer</w>": 243, "shaft</w>": 244, "dy</w>": 245, "waft</w>": 246, "waste": 247, "stile": 248, "har": 249, "natural": 250, "ast.</w>": 251, "eaching</w>": 252, "de</w>": 253, "chat</w>": 254, "beast</w>": 255, "read:</w>": 256, "oman</w>": 257, "posed</w>": 258, "un": 259, "brown</w>": 260, "pine": 261, "ini": 262, "Tal": 263, "$": 264, "Revol": 265, "kindest</w>": 266, "prevented</w>": 267, "cull": 268, "urine</w>": 269, "rutish</w>": 270, "Bury</w>": 271, "place;</w>": 272, "saw</w>": 273, "distrac": 274, "lute,</w>": 275, "dea</w>": 276, "sher": 277, "whet</w>": 278, "disor": 279, "sad?</w>": 280, "col": 281, "gative</w>": 282, "MERCUTIO:</w>": 283, "tires</w>": 284, "rine</w>": 285, "doff</w>": 286, "calus</w>": 287, "crow</w>": 288, "tent.</w>": 289, "fast,</w>": 290, "gination</w>": 291, "nan": 292, "bones</w>": 293, "vel</w>": 294, "thus?</w>": 295, "steera": 296, "rowar": 297, "eves</w>": 298, "prating</w>": 299, "orator</w>": 300, "fe</w>": 301, "ppear</w>": 302, "wall</w>": 303, "ul": 304, "kin.</w>": 305, "rey?</w>": 306, "clack": 307, "digal</w>": 308, "cean,</w>": 309, "Bear": 310, "united</w>": 311, "cased</w>": 312, "Lines</w>": 313, "quit": 314, "rout</w>": 315, "deni": 316, "jure</w>": 317, "butary</w>": 318, "herish</w>": 319, "tune.</w>": 320, "ompare</w>": 321, "--</w>": 322, "malad": 323, "PRINC": 324, "ache,</w>": 325, "weet</w>": 326, "chise": 327, "lie,</w>": 328, "while.</w>": 329, "dea": 330, "parate": 331, "athani": 332, "keen</w>": 333, "sow": 334, "retire": 335, "face:</w>": 336, "quire": 337, "peat!</w>": 338, "mposed</w>": 339, "rack": 340, "delights,</w>": 341, "peli": 342, "sun.</w>": 343, "bey": 344, "pur</w>": 345, "iron</w>": 346, "severe</w>": 347, "copatain</w>": 348, "genitured</w>": 349, "ful": 350, "ar</w>": 351, "uts</w>": 352, "ce:</w>": 353, "castle</w>": 354, "lory,</w>": 355, "ana": 356, "fi": 357, "noran": 358, "tune": 359, "knowist</w>": 360, "dire</w>": 361, "teachest</w>": 362, "wel": 363, "ment</w>": 364, "cola": 365, "dran": 366, "Supposing</w>": 367, "iner</w>": 368, "LER": 369, "spiriting</w>": 370, "ing": 371, "that;</w>": 372, "wishing</w>": 373, "ginit": 374, "sans</w>": 375, "falli": 376, "rees;</w>": 377, "ell</w>": 378, "hat.</w>": 379, "reason.</w>": 380, "thunder": 381, "in'd</w>": 382, "ppen": 383, "lovest,</w>": 384, "lost;</w>": 385, "sele": 386, "ent;</w>": 387, "quing</w>": 388, "ouse</w>": 389, "restra": 390, "yellow": 391, "mperan": 392, "fury,</w>": 393, "made": 394, "ray,</w>": 395, "gathering</w>": 396, "measure.</w>": 397, "quity</w>": 398, "who's</w>": 399, "mistru": 400, "room</w>": 401, "louts</w>": 402, "breast!</w>": 403, "mariner": 404, "hilosop": 405, "ering</w>": 406, "te,</w>": 407, "our": 408, "sister": 409, "stares</w>": 410, "seest,</w>": 411, "ising": 412, "cular</w>": 413, "backing</w>": 414, "de.</w>": 415, "taf": 416, "pon</w>": 417, "Cal": 418, "neeling</w>": 419, "venomous</w>": 420, "honour</w>": 421, "vand</w>": 422, "dier": 423, "under</w>": 424, "Sent</w>": 425, "aris:</w>": 426, "heard</w>": 427, "biliti": 428, "mow": 429, "stealing,</w>": 430, "itan": 431, "digality</w>": 432, "thing,</w>": 433, "These</w>": 434, "natural</w>": 435, "bishop": 436, "allie": 437, "shead.</w>": 438, "pollo</w>": 439, "bad?</w>": 440, "nines": 441, "Anon</w>": 442, "vely,</w>": 443, "readi": 444, "Reven": 445, "mellow</w>": 446, "sore.</w>": 447, "ckerel": 448, "fathom</w>": 449, "coup": 450, "list</w>": 451, "thon</w>": 452, "'Then</w>": 453, "palace;</w>": 454, "righte": 455, "ompey:</w>": 456, "jest</w>": 457, "where.</w>": 458, "thought</w>": 459, "law": 460, "spites</w>": 461, "habitable</w>": 462, "promp": 463, "spilling</w>": 464, "chee": 465, "thou,</w>": 466, "ve": 467, "counted</w>": 468, "me.</w>": 469, "Enga": 470, "duran": 471, "je": 472, "shed</w>": 473, "liest!</w>": 474, "His</w>": 475, "gatory,</w>": 476, "my?</w>": 477, "unaching</w>": 478, "lies:</w>": 479, "post": 480, "nor</w>": 481, "den,</w>": 482, "surely.</w>": 483, "word</w>": 484, "satis": 485, "kes,</w>": 486, "leash</w>": 487, "reat</w>": 488, "alive</w>": 489, "moon,</w>": 490, "pleasure.</w>": 491, "nace": 492, "fished</w>": 493, "wis": 494, "alike</w>": 495, "mane</w>": 496, "pol": 497, "between</w>": 498, "quite,</w>": 499, "ans</w>": 500, "no,</w>": 501, "core,</w>": 502, "LIA:</w>": 503, "poorest,</w>": 504, "brand</w>": 505, "hopest</w>": 506, "teri": 507, "Set</w>": 508, "festering</w>": 509, "S": 510, "lost</w>": 511, "ish": 512, "lination</w>": 513, "isome</w>": 514, "grieve": 515, "ster,</w>": 516, "del</w>": 517, "open</w>": 518, "tite": 519, "reat:</w>": 520, "fee,</w>": 521, "oppor": 522, "quital</w>": 523, "case,</w>": 524, "teach,</w>": 525, "lease": 526, "resh": 527, "rents,</w>": 528, "bunes,</w>": 529, "liest;</w>": 530, "rath,</w>": 531, "frien": 532, "sha": 533, "sin:</w>": 534, "digestion</w>": 535, "foolish": 536, "count!</w>": 537, "shearing</w>": 538, "finely</w>": 539, "ome;</w>": 540, "mpire</w>": 541, "MP": 542, "dure": 543, "town</w>": 544, "cease": 545, "watery</w>": 546, "pack,</w>": 547, "diter": 548, "saline.</w>": 549, "n:</w>": 550, "athes</w>": 551, "tati": 552, "cope": 553, "soonest</w>": 554, "ker</w>": 555, "est:</w>": 556, "welling</w>": 557, "foully</w>": 558, "lau": 559, "cester</w>": 560, "rom": 561, "ati": 562, "Thomas,</w>": 563, "owe": 564, "beareth</w>": 565, "pene": 566, "Master": 567, "ballad": 568, "lowing,</w>": 569, "dishonour": 570, "gine.</w>": 571, "quid</w>": 572, "tent": 573, "foppery</w>": 574, "sore,</w>": 575, "Release</w>": 576, "geab": 577, "mpt</w>": 578, "juri": 579, "destined</w>": 580, "IAN:</w>": 581, "Hast</w>": 582, "opini": 583, "diles!</w>": 584, "alas,</w>": 585, "team</w>": 586, "cine</w>": 587, "shout</w>": 588, "est!</w>": 589, "waning</w>": 590, "salutation</w>": 591, "breathes;</w>": 592, "rated</w>": 593, "For</w>": 594, "tes:</w>": 595, "haste": 596, "hasty</w>": 597, "now": 598, "mad-": 599, "breathest,</w>": 600, "dily</w>": 601, "stru": 602, "dent": 603, "dig": 604, "ry,</w>": 605, "fes</w>": 606, "day,</w>": 607, "wil": 608, "ead</w>": 609, "roy</w>": 610, "shal</w>": 611, "gun,</w>": 612, "eleven</w>": 613, "ves</w>": 614, "terate,</w>": 615, "sphere</w>": 616, "</w>": 617, "priesthood</w>": 618, "Servingman:</w>": 619, "N": 620, "spent,</w>": 621, "atin,</w>": 622, "wool</w>": 623, "O": 624, "fal": 625, "rest!</w>": 626, "aris;</w>": 627, "main,</w>": 628, "MARGARET:</w>": 629, "sest.</w>": 630, "whistle</w>": 631, "miti": 632, "to": 633, "allowan": 634, "miling": 635, "mood</w>": 636, "herited</w>": 637, "est,</w>": 638, "Many</w>": 639, "lopp": 640, "whither</w>": 641, "Do</w>": 642, "no'</w>": 643, "dou": 644, "childish</w>": 645, "d's</w>": 646, "ut": 647, "ary,</w>": 648, "tomorrow</w>": 649, "Benti": 650, "fear</w>": 651, "cun": 652, "meat,</w>": 653, "ases,</w>": 654, "chises,</w>": 655, "withal</w>": 656, "dearer</w>": 657, "tale</w>": 658, "mean": 659, "mansi": 660, "ting,</w>": 661, "sevent": 662, "lient": 663, "ping,</w>": 664, "is:</w>": 665, "care</w>": 666, "mou": 667, "sir;</w>": 668, "sprey</w>": 669, "lolling</w>": 670, "ted</w>": 671, "at!</w>": 672, "bared</w>": 673, "distill": 674, "Supper</w>": 675, "lace.</w>": 676, "brea": 677, "nit,</w>": 678, "lining,</w>": 679, "ses;</w>": 680, "right?</w>": 681, "d--": 682, "evade</w>": 683, "cury</w>": 684, "out:</w>": 685, "heads:</w>": 686, "estor": 687, "dering": 688, "pel</w>": 689, "ater</w>": 690, "visa": 691, "lied</w>": 692, "'Thus</w>": 693, "willing</w>": 694, "stake</w>": 695, "steel</w>": 696, "sen.</w>": 697, "ses!</w>": 698, "!</w>": 699, "ea": 700, "water": 701, "honest,</w>": 702, "cates,</w>": 703, "puty</w>": 704, "wise.</w>": 705, "Go,</w>": 706, "tearing</w>": 707, "vow": 708, "mishes</w>": 709, "eni": 710, "se:</w>": 711, "was.</w>": 712, "KING</w>": 713, "fastest</w>": 714, "foolish,</w>": 715, "quisher": 716, "since</w>": 717, "seal": 718, "Ano": 719, "cher": 720, "ates.</w>": 721, "bea": 722, "mercatan": 723, "best?</w>": 724, "lacks,</w>": 725, "women:</w>": 726, "putation</w>": 727, "supper</w>": 728, "stool</w>": 729, "weat,</w>": 730, "vest</w>": 731, "peering": 732, "laru": 733, "dello</w>": 734, "rupper</w>": 735, "gan": 736, "While</w>": 737, "'Thou</w>": 738, "feast:</w>": 739, "stiti": 740, "city</w>": 741, "mu": 742, "ges</w>": 743, "shallow</w>": 744, "som": 745, "prey</w>": 746, "cile</w>": 747, "bracelet,</w>": 748, "orely,</w>": 749, "rup": 750, "count": 751, "cellen": 752, "gel</w>": 753, "shire</w>": 754, "thou": 755, "wad": 756, "perous</w>": 757, "The</w>": 758, "fishes;</w>": 759, "some,</w>": 760, "vise.</w>": 761, "thine</w>": 762, "Whiter</w>": 763, "atin</w>": 764, "beaten</w>": 765, "prithee</w>": 766, "where": 767, "k": 768, "twith": 769, "hurous</w>": 770, "ighty</w>": 771, "reasury</w>": 772, "cause</w>": 773, "upon:</w>": 774, "belong</w>": 775, "placke": 776, "prowes": 777, "chise</w>": 778, "lack</w>": 779, "nest": 780, "neath</w>": 781, "tented</w>": 782, "lacked</w>": 783, "lourishes</w>": 784, "ous</w>": 785, "fac": 786, "chirur": 787, "sit,</w>": 788, "iling</w>": 789, "There,</w>": 790, "servile</w>": 791, "read.</w>": 792, "ds.</w>": 793, "that's</w>": 794, "bus</w>": 795, "hallowed</w>": 796, "both</w>": 797, "lea": 798, "cer</w>": 799, "stories.</w>": 800, "cale</w>": 801, "key": 802, "ined</w>": 803, "ses": 804, "tomb": 805, "Resu": 806, "had!</w>": 807, "peace.</w>": 808, "c": 809, "dom.</w>": 810, "ising</w>": 811, "light": 812, "Clown:</w>": 813, "retire</w>": 814, "tery,</w>": 815, "tent?</w>": 816, "door": 817, "pleasures</w>": 818, "on:</w>": 819, "tongu": 820, "king,</w>": 821, "CLAU": 822, "ct</w>": 823, "til</w>": 824, "sphere,</w>": 825, "ERD": 826, "pacit": 827, "lari": 828, "grieving</w>": 829, "heart</w>": 830, "beast.</w>": 831, "sire": 832, "despa": 833, "mbiti": 834, "bonado": 835, "malady</w>": 836, "with.</w>": 837, "resent</w>": 838, "soo": 839, "holines": 840, "hales,</w>": 841, "rene": 842, "derary</w>": 843, "relished</w>": 844, "risen</w>": 845, "en</w>": 846, "bery</w>": 847, "mbigu": 848, "unans": 849, "veran": 850, "chasing": 851, "as,</w>": 852, "chea": 853, "lla</w>": 854, "fits,</w>": 855, "gelo.</w>": 856, "But": 857, "subor": 858, "leat</w>": 859, "lish</w>": 860, "pital</w>": 861, "revent</w>": 862, "shall": 863, "There</w>": 864, "mentable</w>": 865, "alifi": 866, "mely,</w>": 867, "to--</w>": 868, "beloved</w>": 869, "mbition</w>": 870, "still</w>": 871, "fasting": 872, "breach</w>": 873, "Prospero,</w>": 874, "bread,</w>": 875, "ning": 876, "Can</w>": 877, "cent": 878, "ach'd</w>": 879, "whit.</w>": 880, "mposition</w>": 881, "bits</w>": 882, "spent</w>": 883, "stole</w>": 884, "terate</w>": 885, "rother": 886, "cares:</w>": 887, "finished</w>": 888, "coun": 889, "cat": 890, "ad!</w>": 891, "kin,</w>": 892, "allied</w>": 893, "time</w>": 894, "ghastly</w>": 895, "leather": 896, "sour</w>": 897, "Seven</w>": 898, "money:</w>": 899, "fe,</w>": 900, "compas": 901, "vet</w>": 902, "pe,</w>": 903, "misplace": 904, "misery,</w>": 905, "til": 906, "reatening</w>": 907, "sin,</w>": 908, "mpath": 909, "TH": 910, "minate</w>": 911, "wash,</w>": 912, "alac": 913, "hell</w>": 914, "bing</w>": 915, "ilates</w>": 916, "alentin": 917, "po": 918, "fright</w>": 919, "leed</w>": 920, "vately,</w>": 921, "gh,</w>": 922, "without,</w>": 923, "lori": 924, "breathe,</w>": 925, "tures:</w>": 926, "mente": 927, "feran": 928, "gracious</w>": 929, "ation</w>": 930, "roop</w>": 931, "penal": 932, "derate</w>": 933, "vouring</w>": 934, "chafe</w>": 935, "win</w>": 936, "pulet": 937, "disper": 938, "how": 939, "hates</w>": 940, "pray</w>": 941, "I": 942, "afar</w>": 943, "mpre": 944, "hopes,</w>": 945, "LAURENCE:</w>": 946, "mbere": 947, "stately</w>": 948, "quisiti": 949, "Do,</w>": 950, "quired</w>": 951, "rees,</w>": 952, "ach,</w>": 953, "nightingale": 954, "din.</w>": 955, "resol": 956, "vo": 957, "Bu": 958, "bear": 959, "left</w>": 960, "gon:</w>": 961, "night's</w>": 962, "easures</w>": 963, "moon.</w>": 964, "abilit": 965, "se</w>": 966, "cares</w>": 967, "pented</w>": 968, "cani": 969, "spee": 970, "unite</w>": 971, "breast,</w>": 972, "compan": 973, "reatures</w>": 974, "isons</w>": 975, "diles,</w>": 976, "gealed</w>": 977, "Suppose,</w>": 978, "cent?</w>": 979, "distur": 980, "poman": 981, "jealous.</w>": 982, "wis</w>": 983, "orient</w>": 984, "retion</w>": 985, "astar": 986, "Nur": 987, "goner</w>": 988, "mor": 989, "truly,</w>": 990, "aches</w>": 991, "parasite": 992, "whist": 993, "ment?</w>": 994, "Mani": 995, "challen": 996, "cool</w>": 997, "at</w>": 998, "espe": 999, "hare.</w>": 1000, "promon": 1001, "bore.</w>": 1002, "stering</w>": 1003, "Ber": 1004, "stituti": 1005, "bra": 1006, "quiry</w>": 1007, "dit?</w>": 1008, "ware": 1009, "Thus,</w>": 1010, "mati": 1011, "th": 1012, "babe,</w>": 1013, "ches:</w>": 1014, "aden</w>": 1015, "resher</w>": 1016, "line,</w>": 1017, "Then</w>": 1018, "light.</w>": 1019, "ack,</w>": 1020, "brace.</w>": 1021, "pproof": 1022, "doom,</w>": 1023, "nature": 1024, "dead?</w>": 1025, "Seely,</w>": 1026, "Sir,</w>": 1027, "pati": 1028, "runes,</w>": 1029, "mises</w>": 1030, "prop</w>": 1031, "nominati": 1032, "Have</w>": 1033, "out;</w>": 1034, "reaten'd</w>": 1035, "asts</w>": 1036, "rely</w>": 1037, "prosperou": 1038, "feat": 1039, "linati": 1040, "feast</w>": 1041, "tir": 1042, "unchan": 1043, "hin": 1044, "mpati": 1045, "postle</w>": 1046, "pulet,</w>": 1047, "en,</w>": 1048, "pina": 1049, "der</w>": 1050, "est</w>": 1051, "ada": 1052, "mulati": 1053, "villanou": 1054, "pare</w>": 1055, "iner": 1056, "leaning</w>": 1057, "breast:</w>": 1058, "rase": 1059, "isproper": 1060, "wall": 1061, "reature</w>": 1062, "pleader": 1063, "displace</w>": 1064, "profit</w>": 1065, "afire</w>": 1066, "woman": 1067, "delighted</w>": 1068, "ate": 1069, "oul</w>": 1070, "Dor": 1071, "foretold</w>": 1072, "dispositi": 1073, "Thither</w>": 1074, "White": 1075, "deaf</w>": 1076, "lead;</w>": 1077, "ft</w>": 1078, "parent,</w>": 1079, "bit;</w>": 1080, "vite</w>": 1081, "veni": 1082, "alentine": 1083, "fishes.</w>": 1084, "chen</w>": 1085, "ill,</w>": 1086, "wold</w>": 1087, "ses?</w>": 1088, "Down</w>": 1089, "cowar": 1090, "lest,</w>": 1091, "thigh": 1092, "val": 1093, "rear</w>": 1094, "fishes</w>": 1095, "tut": 1096, "relent</w>": 1097, "cellent.</w>": 1098, "callest</w>": 1099, "bout</w>": 1100, "prevent</w>": 1101, "viron'd</w>": 1102, "cease,</w>": 1103, "bad</w>": 1104, "paration</w>": 1105, "voli": 1106, "allowing</w>": 1107, "ransome": 1108, "sad,</w>": 1109, "in.</w>": 1110, "vest.</w>": 1111, "penitent?</w>": 1112, "hating</w>": 1113, "tas": 1114, "bestir,</w>": 1115, "allow": 1116, "chor": 1117, "Mab": 1118, "bour": 1119, "cabin:</w>": 1120, "lightens</w>": 1121, "tent:</w>": 1122, "pate,</w>": 1123, "Sa": 1124, "resolution</w>": 1125, "pons</w>": 1126, "rets,</w>": 1127, "miser": 1128, "basenes": 1129, "quin": 1130, "Call,</w>": 1131, "leles": 1132, "canst:</w>": 1133, "mes,</w>": 1134, "or": 1135, "enig": 1136, "shar": 1137, "poun": 1138, "post:</w>": 1139, "p,</w>": 1140, "wade</w>": 1141, "gh</w>": 1142, "dest": 1143, "sive</w>": 1144, "wings</w>": 1145, "mity</w>": 1146, "hina</w>": 1147, "tha": 1148, "heads.</w>": 1149, "presentation</w>": 1150, "ds</w>": 1151, "oly</w>": 1152, "espa": 1153, "prero": 1154, "Call": 1155, "tista": 1156, "leased</w>": 1157, "dash": 1158, "juries?</w>": 1159, "sures</w>": 1160, "ELIZABETH:</w>": 1161, "gull": 1162, "happene": 1163, "jure": 1164, "MEN": 1165, "eas": 1166, "reverent": 1167, "wearisome,</w>": 1168, "mansion</w>": 1169, "oo</w>": 1170, "dish</w>": 1171, "breath</w>": 1172, "lilies</w>": 1173, "leet</w>": 1174, "mble</w>": 1175, "nine</w>": 1176, "ary</w>": 1177, "sus,</w>": 1178, "c</w>": 1179, "Whate": 1180, "olan": 1181, "all</w>": 1182, "milli": 1183, "ros": 1184, "thed</w>": 1185, "dar</w>": 1186, "mpathi": 1187, "last;</w>": 1188, "tut!</w>": 1189, "dary,</w>": 1190, "east,</w>": 1191, "hate,</w>": 1192, "peril</w>": 1193, "vines;</w>": 1194, "bute,</w>": 1195, "distingu": 1196, "gear</w>": 1197, "sp": 1198, "futes</w>": 1199, "tween</w>": 1200, "rats</w>": 1201, "gi": 1202, "had,</w>": 1203, "migo": 1204, "mad--</w>": 1205, "Nor": 1206, "lute": 1207, "unit": 1208, "respas": 1209, "rack</w>": 1210, "dor</w>": 1211, "enes,</w>": 1212, "tha</w>": 1213, "mbo": 1214, "chins</w>": 1215, "let": 1216, "welling,</w>": 1217, "monly</w>": 1218, "destini": 1219, "nories</w>": 1220, "ment's</w>": 1221, "thu": 1222, "pestilent</w>": 1223, "felon</w>": 1224, "ison</w>": 1225, "CA:</w>": 1226, "Whiles</w>": 1227, "derates": 1228, "ven": 1229, "sleeve": 1230, "leer</w>": 1231, "utes,</w>": 1232, "toge</w>": 1233, "stoop": 1234, "never": 1235, "ristopher,</w>": 1236, "reach</w>": 1237, "pose</w>": 1238, "rarely</w>": 1239, "reacher": 1240, "reelier</w>": 1241, "prig": 1242, "delight</w>": 1243, "Sur": 1244, "rad": 1245, "opposition</w>": 1246, "shes</w>": 1247, "several": 1248, "sad</w>": 1249, "prieve,</w>": 1250, "bow</w>": 1251, "star": 1252, "old</w>": 1253, "hired</w>": 1254, "hole,</w>": 1255, "jesti": 1256, "vasti": 1257, "beset</w>": 1258, "bran": 1259, "patri": 1260, "son'd</w>": 1261, "thy</w>": 1262, "unable</w>": 1263, "vity</w>": 1264, "EST": 1265, "esolate,</w>": 1266, "ining": 1267, "rinish</w>": 1268, "wing": 1269, "pparell": 1270, "lenish": 1271, "ruly,</w>": 1272, "ute</w>": 1273, "CLARENCE:</w>": 1274, "prop": 1275, "means?</w>": 1276, "hen": 1277, "resist.</w>": 1278, "fab": 1279, "cerity</w>": 1280, "jollit": 1281, "power": 1282, "presente": 1283, "rey": 1284, "past:</w>": 1285, "Hadst</w>": 1286, "caster": 1287, "fight:</w>": 1288, "woman.</w>": 1289, "Bi": 1290, "shire,</w>": 1291, "falling,</w>": 1292, "som.</w>": 1293, "restri": 1294, "ying": 1295, "vast,</w>": 1296, "tand,</w>": 1297, "levit": 1298, "far": 1299, "ar": 1300, "purest</w>": 1301, "bering": 1302, "FRIAR</w>": 1303, "properer</w>": 1304, "plats</w>": 1305, "dolat": 1306, "tab": 1307, "ons</w>": 1308, "higher</w>": 1309, "roun": 1310, "ra</w>": 1311, "spires</w>": 1312, "seller": 1313, "prise.</w>": 1314, "tiger</w>": 1315, "lisping,</w>": 1316, "ano": 1317, "finer</w>": 1318, "RO": 1319, "gon</w>": 1320, "evil": 1321, "top</w>": 1322, "none,</w>": 1323, "ding</w>": 1324, "combined</w>": 1325, "howe": 1326, "ulina</w>": 1327, "severe,</w>": 1328, "lie": 1329, "ellist,</w>": 1330, "s:</w>": 1331, "strive</w>": 1332, "ce,</w>": 1333, "chop": 1334, "bones:</w>": 1335, "knowest</w>": 1336, "rent.</w>": 1337, "ries;</w>": 1338, "leven,</w>": 1339, "in": 1340, "whom</w>": 1341, "within": 1342, "supreme,</w>": 1343, "mother": 1344, "vil": 1345, "tood</w>": 1346, "rose": 1347, "soul": 1348, "cou": 1349, "cast": 1350, "w</w>": 1351, "banish</w>": 1352, "ones!</w>": 1353, "bere": 1354, "cherous.</w>": 1355, "staf": 1356, "dex": 1357, "roll": 1358, "whir": 1359, "light;</w>": 1360, "ye</w>": 1361, "bury</w>": 1362, "face,</w>": 1363, "dispose</w>": 1364, "afear": 1365, "whit:</w>": 1366, "believe,</w>": 1367, "rees.</w>": 1368, "dashing</w>": 1369, "beying</w>": 1370, "weary</w>": 1371, "habited</w>": 1372, "Rest</w>": 1373, "ther": 1374, "foresaid</w>": 1375, "lighter</w>": 1376, "hall,</w>": 1377, "nit:</w>": 1378, "easure</w>": 1379, "cur": 1380, "lish": 1381, "mun": 1382, "spil": 1383, "nest.</w>": 1384, "purpose.</w>": 1385, "latly</w>": 1386, "Rome;</w>": 1387, "sigh</w>": 1388, "measure,</w>": 1389, "hast</w>": 1390, "est's</w>": 1391, "thousand</w>": 1392, "lull": 1393, "heath,</w>": 1394, "ompey</w>": 1395, "ve,</w>": 1396, "miry</w>": 1397, "hit.</w>": 1398, "uren": 1399, "cale.</w>": 1400, "well,</w>": 1401, "fall,</w>": 1402, "pack'd</w>": 1403, "villanous</w>": 1404, "ares</w>": 1405, "dited</w>": 1406, "pared</w>": 1407, "strata": 1408, "morous</w>": 1409, "cate</w>": 1410, "natures?</w>": 1411, "countenan": 1412, "oman.</w>": 1413, "Proof": 1414, "garet:</w>": 1415, "state.</w>": 1416, "lou": 1417, "nation</w>": 1418, "i'</w>": 1419, "couts,</w>": 1420, "followe": 1421, "pri": 1422, "linea": 1423, "wearied</w>": 1424, "lists</w>": 1425, "offi": 1426, "lost:</w>": 1427, "venti": 1428, "charac": 1429, ":": 1430, "jer": 1431, "athed</w>": 1432, "pparent?</w>": 1433, "heritor</w>": 1434, "bated</w>": 1435, "entish": 1436, "fering</w>": 1437, "ilate</w>": 1438, "tentous</w>": 1439, "mains</w>": 1440, "leader</w>": 1441, "nest;</w>": 1442, "miling,</w>": 1443, "ingo": 1444, "gin:</w>": 1445, "tonight:</w>": 1446, "willing,</w>": 1447, "RICH": 1448, "spun</w>": 1449, "telligen": 1450, "shut.</w>": 1451, "reacherou": 1452, "thest?</w>": 1453, "lown</w>": 1454, "went": 1455, "drab": 1456, "silent:</w>": 1457, "inac": 1458, "backs</w>": 1459, "stri": 1460, "return</w>": 1461, "uni": 1462, "me;</w>": 1463, "once</w>": 1464, "ransom</w>": 1465, "pupil": 1466, "ced</w>": 1467, "cati": 1468, "generate</w>": 1469, "supper": 1470, "wean</w>": 1471, "lonely</w>": 1472, "plan": 1473, "Bespa": 1474, "dons</w>": 1475, "ret</w>": 1476, "lesome.</w>": 1477, "prosel": 1478, "ses,</w>": 1479, "gall": 1480, "unac": 1481, "ppariti": 1482, "hope,</w>": 1483, "nightingales</w>": 1484, "shill</w>": 1485, "tid</w>": 1486, "desires.</w>": 1487, "again": 1488, "st": 1489, "eves;</w>": 1490, "world</w>": 1491, "whores</w>": 1492, "mole": 1493, "t": 1494, "ditary</w>": 1495, "ans.</w>": 1496, "lead.</w>": 1497, "come</w>": 1498, "sale": 1499, "visitation</w>": 1500, "perad": 1501, "tise": 1502, "pping": 1503, "Would</w>": 1504, "ily</w>": 1505, "sun:</w>": 1506, "testing</w>": 1507, "genor</w>": 1508, "juries,</w>": 1509, "blood</w>": 1510, "even,</w>": 1511, "'t</w>": 1512, "olu": 1513, "reti": 1514, "reated</w>": 1515, "desperate,</w>": 1516, "pins</w>": 1517, "race": 1518, "va": 1519, "Believe": 1520, "hearing": 1521, "ni": 1522, "lasting</w>": 1523, "stentati": 1524, "tand</w>": 1525, "omen</w>": 1526, "broo": 1527, "They": 1528, "lose": 1529, "gar</w>": 1530, "dispute</w>": 1531, "may</w>": 1532, "his?</w>": 1533, "nex": 1534, "cil": 1535, "wearer": 1536, "ty</w>": 1537, "ean:</w>": 1538, "burie": 1539, "ME": 1540, "seas,</w>": 1541, "sand</w>": 1542, "sale</w>": 1543, "Relish</w>": 1544, "mother</w>": 1545, "ries!</w>": 1546, "gined</w>": 1547, "inex": 1548, "citi": 1549, "d:</w>": 1550, "ANT": 1551, "wol": 1552, "chastised</w>": 1553, "off</w>": 1554, "cules</w>": 1555, "AUTOLYCUS:</w>": 1556, "still": 1557, "ile": 1558, "parish": 1559, "lackey</w>": 1560, "pee": 1561, "rist:</w>": 1562, "ware,</w>": 1563, "brou": 1564, "them</w>": 1565, "Right,</w>": 1566, "pini": 1567, "hesi": 1568, "gal</w>": 1569, "sack": 1570, "wellest</w>": 1571, "irons</w>": 1572, "estate": 1573, "At</w>": 1574, "lackey,</w>": 1575, "Red</w>": 1576, "lace,</w>": 1577, "Marci": 1578, "mpale</w>": 1579, "Bona": 1580, "did</w>": 1581, "stops</w>": 1582, "Bearing</w>": 1583, "there.</w>": 1584, "ight</w>": 1585, "eal": 1586, "test</w>": 1587, "dallies</w>": 1588, "misa": 1589, "Listen</w>": 1590, "postulate,</w>": 1591, "ver": 1592, "lifi": 1593, "gentleness</w>": 1594, "thor": 1595, "seate": 1596, "parasite,</w>": 1597, "fes": 1598, "is;</w>": 1599, "Take</w>": 1600, "desiring</w>": 1601, "chaste": 1602, "nous</w>": 1603, "backs,</w>": 1604, "had": 1605, "they!</w>": 1606, "faces,</w>": 1607, "dom": 1608, "kee": 1609, "when": 1610, "am</w>": 1611, "palate</w>": 1612, "pentan": 1613, "sowing</w>": 1614, "per": 1615, "singular": 1616, "omenes</w>": 1617, "cket</w>": 1618, "ck": 1619, "punish</w>": 1620, "mile.</w>": 1621, "thus,</w>": 1622, "ren": 1623, "om": 1624, "What,</w>": 1625, "twit": 1626, "speaks,</w>": 1627, "ster": 1628, "nest?</w>": 1629, "ror</w>": 1630, "cop": 1631, "listed</w>": 1632, "kely</w>": 1633, "lacker": 1634, "unis</w>": 1635, "ps</w>": 1636, "renounce</w>": 1637, "who,</w>": 1638, "shent</w>": 1639, "poor": 1640, "store,</w>": 1641, "bites,</w>": 1642, "gun</w>": 1643, "tract</w>": 1644, "moon": 1645, "spite</w>": 1646, "sured</w>": 1647, "hat</w>": 1648, "tines": 1649, "cell": 1650, "fat": 1651, "mpeach'd</w>": 1652, "sole": 1653, "trash</w>": 1654, "weens</w>": 1655, "deed</w>": 1656, "ghter": 1657, "BAR": 1658, "ings</w>": 1659, ",'</w>": 1660, "cool": 1661, "graded</w>": 1662, "lets</w>": 1663, "season'd</w>": 1664, "hollow": 1665, "couts</w>": 1666, "mitati": 1667, "ney,</w>": 1668, "knowest,</w>": 1669, "t's</w>": 1670, "reasure,</w>": 1671, "shes;</w>": 1672, "cel": 1673, "Than": 1674, "honourest</w>": 1675, "AD": 1676, "Prosperit": 1677, "them": 1678, "puts</w>": 1679, "RICHARD:</w>": 1680, "babe": 1681, "lourish</w>": 1682, "Cats,</w>": 1683, "she,</w>": 1684, "sprin": 1685, "spaci": 1686, "red</w>": 1687, "ppeach</w>": 1688, "fade</w>": 1689, "ISABELLA:</w>": 1690, "v": 1691, "thine,</w>": 1692, "dra</w>": 1693, "rel</w>": 1694, "ise": 1695, "estru": 1696, "better</w>": 1697, "quires</w>": 1698, "cheries.</w>": 1699, "ver</w>": 1700, "MER:</w>": 1701, "y:</w>": 1702, "reen": 1703, "ret;</w>": 1704, "ral": 1705, "ceit": 1706, "ise,</w>": 1707, "clout</w>": 1708, "oura": 1709, "who</w>": 1710, "senger</w>": 1711, "ton": 1712, "speaking": 1713, "reats</w>": 1714, "teaches</w>": 1715, "cules;</w>": 1716, "hallow": 1717, "case": 1718, "y</w>": 1719, "Were</w>": 1720, "manor": 1721, "ghting</w>": 1722, "cis,</w>": 1723, "MILIA:</w>": 1724, "go": 1725, "vourable</w>": 1726, "seal</w>": 1727, "fatigate,</w>": 1728, "spirit's</w>": 1729, "ere": 1730, "Du": 1731, "babe.</w>": 1732, "retire.</w>": 1733, "stooping</w>": 1734, "led</w>": 1735, "moni": 1736, "visher,</w>": 1737, "swore,</w>": 1738, "tho": 1739, "duty</w>": 1740, "stored</w>": 1741, "reth": 1742, "eal</w>": 1743, "sest</w>": 1744, "te.</w>": 1745, "shower</w>": 1746, "ran": 1747, "prieve</w>": 1748, "digest</w>": 1749, "hate": 1750, "ised</w>": 1751, "staring": 1752, "laces</w>": 1753, "pparent</w>": 1754, "lex": 1755, "post,</w>": 1756, "hour</w>": 1757, "pitol</w>": 1758, "nees.</w>": 1759, "ley.</w>": 1760, "Claren": 1761, "ris": 1762, "vati": 1763, "callet</w>": 1764, "wor": 1765, "net</w>": 1766, "tation</w>": 1767, "maid</w>": 1768, "volous.</w>": 1769, "mb": 1770, "dulity</w>": 1771, "beto": 1772, "weal": 1773, "made,</w>": 1774, "Read": 1775, "fisher</w>": 1776, "eye,</w>": 1777, "gon": 1778, "feast.</w>": 1779, "lie</w>": 1780, "white": 1781, "severe": 1782, "dinan": 1783, "hood</w>": 1784, "tenth</w>": 1785, "twist</w>": 1786, "ulie": 1787, "prosper": 1788, "chased</w>": 1789, "stay</w>": 1790, "een,</w>": 1791, "Peering</w>": 1792, "igh,</w>": 1793, "rule,</w>": 1794, "royal</w>": 1795, "tart</w>": 1796, "illes'</w>": 1797, "fit;</w>": 1798, "F": 1799, "dly</w>": 1800, "finish</w>": 1801, "pren": 1802, "truth.</w>": 1803, "ma": 1804, "that.</w>": 1805, "chin": 1806, "owest</w>": 1807, "lunes</w>": 1808, "base,</w>": 1809, "sou": 1810, "lient</w>": 1811, "at.</w>": 1812, "resoluti": 1813, "please:</w>": 1814, "ges.</w>": 1815, "desirous</w>": 1816, "resented</w>": 1817, "lineally</w>": 1818, "ster</w>": 1819, "pulet:</w>": 1820, "allop</w>": 1821, "desirest</w>": 1822, "deer": 1823, "rean": 1824, "deserving,</w>": 1825, "up": 1826, "callat</w>": 1827, "cerel": 1828, "fever</w>": 1829, "face;</w>": 1830, "peevish,</w>": 1831, "knowing</w>": 1832, "fen</w>": 1833, "catalo": 1834, "Thee.</w>": 1835, "place</w>": 1836, "rien": 1837, "breathe": 1838, "tune,</w>": 1839, "ment;</w>": 1840, "last": 1841, "foun": 1842, "hesu": 1843, "beast!</w>": 1844, "relents</w>": 1845, "beral": 1846, "miste": 1847, "face": 1848, "wary,</w>": 1849, "illa": 1850, "garet": 1851, "on</w>": 1852, "pent</w>": 1853, "home</w>": 1854, "ates;</w>": 1855, "ppeased</w>": 1856, "go'st</w>": 1857, "pour</w>": 1858, "high": 1859, "rule.</w>": 1860, "peed</w>": 1861, "s?</w>": 1862, "ilor</w>": 1863, "star</w>": 1864, "bones?</w>": 1865, "stol": 1866, "Tying</w>": 1867, "spra": 1868, "feasting</w>": 1869, "habits,</w>": 1870, "comes</w>": 1871, "mighty</w>": 1872, "gation</w>": 1873, "aspired</w>": 1874, "here,</w>": 1875, "night": 1876, "pish</w>": 1877, "mine</w>": 1878, "chi": 1879, "thines": 1880, "wine,</w>": 1881, "seen": 1882, "rites</w>": 1883, "onary</w>": 1884, "ully</w>": 1885, "reacherous,</w>": 1886, "heaven</w>": 1887, "mada": 1888, "rigour": 1889, "Pronounce</w>": 1890, "man</w>": 1891, "ght</w>": 1892, "hor</w>": 1893, "suran": 1894, "pace</w>": 1895, "ades,</w>": 1896, "pher</w>": 1897, "my,</w>": 1898, "venture</w>": 1899, "venerable</w>": 1900, "dis": 1901, "diness</w>": 1902, "ullus,</w>": 1903, "ithin</w>": 1904, "or</w>": 1905, "fast?</w>": 1906, "cate.</w>": 1907, "perien": 1908, "sta": 1909, "preys</w>": 1910, "balan": 1911, "gary,</w>": 1912, "gine,</w>": 1913, "comer</w>": 1914, "showering": 1915, "ad,</w>": 1916, "ppear": 1917, "coura": 1918, "wash</w>": 1919, "bash": 1920, "AUMER": 1921, "case.</w>": 1922, "too": 1923, "safest</w>": 1924, "arely,</w>": 1925, "man:</w>": 1926, "ones</w>": 1927, "rin": 1928, "cof": 1929, "DUKE</w>": 1930, "servitor</w>": 1931, "stones": 1932, "priests</w>": 1933, "sat</w>": 1934, "hur</w>": 1935, "twoul": 1936, "cado</w>": 1937, "safe,</w>": 1938, "taste</w>": 1939, "main:</w>": 1940, "tolerab": 1941, "stall": 1942, "tran": 1943, "base": 1944, "whatever</w>": 1945, "leansing</w>": 1946, "ket</w>": 1947, "minent</w>": 1948, "wishes</w>": 1949, "Bona</w>": 1950, "eater": 1951, "bility</w>": 1952, "nes,</w>": 1953, "maining,</w>": 1954, "bellow": 1955, "lists,</w>": 1956, "rea": 1957, "taly,</w>": 1958, "Prospero</w>": 1959, "profane,</w>": 1960, "bune": 1961, "all": 1962, "ful</w>": 1963, "cupi": 1964, "inon,</w>": 1965, "rower": 1966, "pit!</w>": 1967, "nights</w>": 1968, "women,</w>": 1969, "soms</w>": 1970, "omans:</w>": 1971, "last.</w>": 1972, "thus": 1973, "seven": 1974, "ser": 1975, "shadow</w>": 1976, "Fir": 1977, "Hereafter</w>": 1978, "vest": 1979, "levy</w>": 1980, "pacing</w>": 1981, "might": 1982, "abo": 1983, "chaf": 1984, "remes</w>": 1985, "sell": 1986, "comed</w>": 1987, "graced</w>": 1988, "bit</w>": 1989, "bon</w>": 1990, "iran": 1991, "ches.</w>": 1992, "ire,</w>": 1993, "sing</w>": 1994, "cet</w>": 1995, "night,</w>": 1996, "willig": 1997, "ally</w>": 1998, "durab": 1999, "s'</w>": 2000, "mpery,</w>": 2001, "woo.</w>": 2002, "evish</w>": 2003, "merits</w>": 2004, "foolish</w>": 2005, "that</w>": 2006, "liest</w>": 2007, "spill": 2008, "steal": 2009, "breaches,</w>": 2010, "slash,</w>": 2011, "sullen,</w>": 2012, "his;</w>": 2013, "ature</w>": 2014, "parent": 2015, "eyes;</w>": 2016, "mut": 2017, "testi": 2018, "yings</w>": 2019, "leate": 2020, "plash</w>": 2021, "deri": 2022, "inous</w>": 2023, "happines": 2024, "sure": 2025, "title</w>": 2026, "Seen</w>": 2027, "let!</w>": 2028, "loves;</w>": 2029, "Y:</w>": 2030, "evouring</w>": 2031, "bell,</w>": 2032, "All</w>": 2033, "present": 2034, "isan": 2035, "Mu": 2036, "ashore,</w>": 2037, "dost</w>": 2038, "to't</w>": 2039, "mpas": 2040, "propa": 2041, "Let</w>": 2042, "someness</w>": 2043, "mistake</w>": 2044, "breathe</w>": 2045, "-": 2046, "tee": 2047, "awar": 2048, "hereabouts</w>": 2049, "pan": 2050, "women</w>": 2051, "ballad</w>": 2052, "entirely</w>": 2053, "menti": 2054, "wed</w>": 2055, "nigh,</w>": 2056, "dish": 2057, "jury</w>": 2058, "shine": 2059, "chool": 2060, "reton</w>": 2061, "Wh": 2062, "arise": 2063, "gin'd</w>": 2064, "weather,</w>": 2065, "eating": 2066, "lenty</w>": 2067, "breathing": 2068, "dona": 2069, "dinous</w>": 2070, "In": 2071, "fine,</w>": 2072, "ten'd</w>": 2073, "an": 2074, "spur": 2075, "cado": 2076, "se,</w>": 2077, "promise</w>": 2078, "d.</w>": 2079, "hereto</w>": 2080, "lily</w>": 2081, "things</w>": 2082, "to,</w>": 2083, "testy</w>": 2084, "para": 2085, "cker": 2086, "ther,</w>": 2087, "dita": 2088, "fore.</w>": 2089, "down</w>": 2090, "dita</w>": 2091, "ralled</w>": 2092, "linger</w>": 2093, "gall</w>": 2094, "rit.</w>": 2095, "Carouse</w>": 2096, "Now,</w>": 2097, "ollow</w>": 2098, "comely</w>": 2099, "fight,</w>": 2100, "deli": 2101, "Edward</w>": 2102, "spit</w>": 2103, ",--": 2104, "ligent;</w>": 2105, "ale,</w>": 2106, "twan": 2107, "nally,</w>": 2108, "enounced</w>": 2109, "racks</w>": 2110, "grievous</w>": 2111, "chastit": 2112, "List</w>": 2113, "nea": 2114, "thither": 2115, "Nurse:</w>": 2116, "Whatever</w>": 2117, "vigilan": 2118, "these</w>": 2119, "pleasan": 2120, "abouring</w>": 2121, "Shall</w>": 2122, "moles,</w>": 2123, "devise</w>": 2124, "ghed</w>": 2125, "rightly</w>": 2126, "Best!</w>": 2127, "tradi": 2128, "sold</w>": 2129, "more</w>": 2130, "dent!</w>": 2131, "Reveal</w>": 2132, "leases</w>": 2133, "resolute.</w>": 2134, "can</w>": 2135, "illing</w>": 2136, "perilous</w>": 2137, "ison,</w>": 2138, "upright</w>": 2139, "tists,</w>": 2140, "loved</w>": 2141, "plu": 2142, "feather": 2143, "opposed</w>": 2144, "Whither": 2145, "eyes'</w>": 2146, "desires,</w>": 2147, "she.</w>": 2148, "mast;</w>": 2149, "pes</w>": 2150, "heer": 2151, "BR": 2152, "habitati": 2153, "isurely,</w>": 2154, "venturous,</w>": 2155, "KA": 2156, "speaking,</w>": 2157, "tal</w>": 2158, "Theretake</w>": 2159, "revel</w>": 2160, "nature.</w>": 2161, "punto</w>": 2162, "cata</w>": 2163, "cele": 2164, "morrow": 2165, "roli": 2166, "traditi": 2167, "babes": 2168, "DUK": 2169, "garet's</w>": 2170, "proposed</w>": 2171, "bitrate</w>": 2172, "Bunch</w>": 2173, "cularise</w>": 2174, "espouse</w>": 2175, "men</w>": 2176, "ce;</w>": 2177, "sore</w>": 2178, "proli": 2179, "fri": 2180, "fast!</w>": 2181, "distin": 2182, "prig,</w>": 2183, "For": 2184, "chastely.</w>": 2185, "rose,</w>": 2186, "bad,</w>": 2187, "k</w>": 2188, "child's</w>": 2189, "ton,</w>": 2190, "rilous</w>": 2191, "but": 2192, "ved</w>": 2193, "dispro": 2194, "lies?</w>": 2195, "tly</w>": 2196, "again,</w>": 2197, "cease.</w>": 2198, "rath": 2199, "ceries</w>": 2200, "stolen</w>": 2201, "ed</w>": 2202, "shearing": 2203, "Bishop,</w>": 2204, "about</w>": 2205, "cites</w>": 2206, "dra": 2207, "t:</w>": 2208, "mon": 2209, "leasing": 2210, "heads</w>": 2211, "ea</w>": 2212, "dure</w>": 2213, "resisted</w>": 2214, "fingering": 2215, "unchilded</w>": 2216, "mac": 2217, "mo.</w>": 2218, "won:</w>": 2219, "suret": 2220, "right,</w>": 2221, "prevent.</w>": 2222, "pace,</w>": 2223, "shopper": 2224, "lins</w>": 2225, "pestering</w>": 2226, "stoo": 2227, "folly</w>": 2228, "shop,</w>": 2229, "None</w>": 2230, "lit": 2231, "copest</w>": 2232, "much</w>": 2233, "bunes;</w>": 2234, "atri": 2235, "liness</w>": 2236, "pouring</w>": 2237, "suppose": 2238, "fen": 2239, "das!</w>": 2240, "fes,</w>": 2241, "llo": 2242, "rear": 2243, "Hasting</w>": 2244, "is,</w>": 2245, "'tis</w>": 2246, "silen": 2247, "forest</w>": 2248, "omans</w>": 2249, "heat</w>": 2250, "caru": 2251, "uli": 2252, "'er</w>": 2253, "ilu": 2254, "fine.</w>": 2255, "stomach'd</w>": 2256, "back'd</w>": 2257, "silent.</w>": 2258, "rested</w>": 2259, "vented</w>": 2260, "twel": 2261, "last:</w>": 2262, "parenta": 2263, "illi": 2264, "might,</w>": 2265, "alone</w>": 2266, "brat,</w>": 2267, "talon": 2268, "rements,</w>": 2269, "pab": 2270, "opposite.</w>": 2271, "terous</w>": 2272, "doms</w>": 2273, "five</w>": 2274, "omit</w>": 2275, "bestri": 2276, "about,</w>": 2277, "dead-": 2278, "Propor": 2279, "the": 2280, "Authority</w>": 2281, "hear</w>": 2282, "cules,</w>": 2283, "donis</w>": 2284, "abro": 2285, "king</w>": 2286, "pin</w>": 2287, "met</w>": 2288, "me:</w>": 2289, "madest,</w>": 2290, "devilish</w>": 2291, "sit;</w>": 2292, "putati": 2293, "bale": 2294, "Hasting": 2295, "breasted</w>": 2296, "pop": 2297, "diti": 2298, "ransom.</w>": 2299, "mpose,</w>": 2300, "father</w>": 2301, "then:</w>": 2302, "beast": 2303, "stility</w>": 2304, "loves": 2305, "coli": 2306, "EDWARD:</w>": 2307, "kind.</w>": 2308, "Tabour": 2309, "onate": 2310, "to't.</w>": 2311, "lack.</w>": 2312, "mporal": 2313, "pon,</w>": 2314, "disposing</w>": 2315, "bad:</w>": 2316, "IS:</w>": 2317, "anon.</w>": 2318, "raci": 2319, "mut</w>": 2320, "ppeall": 2321, "uprighte": 2322, "olent,</w>": 2323, "din": 2324, "Sure,</w>": 2325, "thee</w>": 2326, "parated</w>": 2327, "far</w>": 2328, "staring</w>": 2329, "ville</w>": 2330, "ade.</w>": 2331, "sey": 2332, "careless</w>": 2333, "curely</w>": 2334, "chariti": 2335, "prose": 2336, "ginger</w>": 2337, "twofold</w>": 2338, "routs</w>": 2339, "donato,</w>": 2340, "resiste": 2341, "verily</w>": 2342, "ture": 2343, "ment": 2344, "aloof,</w>": 2345, "lorenti": 2346, "count,</w>": 2347, "rigor</w>": 2348, "delay,</w>": 2349, "heal</w>": 2350, "es</w>": 2351, "slau": 2352, "dares:</w>": 2353, "basilis": 2354, "p</w>": 2355, "geness</w>": 2356, "trans": 2357, "Whom</w>": 2358, "upi": 2359, "sight</w>": 2360, "Bol": 2361, "furi": 2362, "wholesomest</w>": 2363, "func": 2364, "silent</w>": 2365, "mporal</w>": 2366, "es!</w>": 2367, "some:</w>": 2368, "pear": 2369, "ys</w>": 2370, "wi": 2371, "it's</w>": 2372, "mute</w>": 2373, "alas</w>": 2374, "lower": 2375, "purpose:</w>": 2376, "Madest</w>": 2377, "onal</w>": 2378, "miling</w>": 2379, "relish</w>": 2380, "shore": 2381, "nigh": 2382, "rit;</w>": 2383, "han": 2384, "cinal</w>": 2385, "his</w>": 2386, "sister</w>": 2387, "HENRY</w>": 2388, "doth</w>": 2389, "prosperous</w>": 2390, "self.</w>": 2391, "piled</w>": 2392, "VINCENTIO:</w>": 2393, "tories</w>": 2394, "plun": 2395, "venous</w>": 2396, "GREEN": 2397, "bethink</w>": 2398, "resoun": 2399, "close,</w>": 2400, "prosperit": 2401, "shall,</w>": 2402, "place": 2403, "lease</w>": 2404, "These,</w>": 2405, "ment:</w>": 2406, "ute,</w>": 2407, "tun": 2408, "sit": 2409, "wes</w>": 2410, "ispat": 2411, "merci": 2412, "tuned</w>": 2413, "IV": 2414, "devil</w>": 2415, "reater,</w>": 2416, "Rome?</w>": 2417, "stomach</w>": 2418, "ceit.</w>": 2419, "mutiner": 2420, "wisely</w>": 2421, "Cates": 2422, "onest</w>": 2423, "reature.</w>": 2424, "best</w>": 2425, "mite": 2426, "wish</w>": 2427, "ristophero</w>": 2428, "espite": 2429, "Mat": 2430, "up,</w>": 2431, "caution</w>": 2432, "ferent</w>": 2433, "ilen": 2434, "r</w>": 2435, "wool": 2436, "pt</w>": 2437, "deal": 2438, "hearing,</w>": 2439, "moran": 2440, "WARWICK:</w>": 2441, "ging": 2442, "honest</w>": 2443, "poral</w>": 2444, "espise": 2445, "fatal</w>": 2446, "lo</w>": 2447, "pronounced</w>": 2448, "steer": 2449, "prin": 2450, "wis,</w>": 2451, "relation</w>": 2452, "lasts</w>": 2453, "Pro": 2454, "Sigh": 2455, "dity</w>": 2456, "allowing,</w>": 2457, "desperate</w>": 2458, "pomp,</w>": 2459, "coffing</w>": 2460, "rease,</w>": 2461, "fore,</w>": 2462, "fat</w>": 2463, "porous</w>": 2464, "malus,</w>": 2465, "ee": 2466, "titi": 2467, "bearing": 2468, "y?</w>": 2469, "yingest</w>": 2470, "Au": 2471, "Citizen:</w>": 2472, "visitor</w>": 2473, "tain</w>": 2474, "fool": 2475, "mouth,</w>": 2476, "chafes,</w>": 2477, "eaning</w>": 2478, "tes": 2479, "gistrates.</w>": 2480, "distra": 2481, "geling</w>": 2482, "o,</w>": 2483, "ging,</w>": 2484, "surely,</w>": 2485, "disar": 2486, "beneath</w>": 2487, "heasan": 2488, "posterit": 2489, "whiteness</w>": 2490, "valleys</w>": 2491, "gelo": 2492, "packe": 2493, "Then,</w>": 2494, "tay,</w>": 2495, "itus.</w>": 2496, "prise</w>": 2497, "within.</w>": 2498, "ting</w>": 2499, "boon.</w>": 2500, "aco": 2501, "mate</w>": 2502, "fires;</w>": 2503, "pine</w>": 2504, "real</w>": 2505, "stitution</w>": 2506, "rase</w>": 2507, "gallow": 2508, "hoped</w>": 2509, "stit": 2510, "nack,</w>": 2511, "riel": 2512, "forth</w>": 2513, "moon:</w>": 2514, "sight?</w>": 2515, "ceal": 2516, "fon": 2517, "Lest,</w>": 2518, "runs</w>": 2519, "bel": 2520, "posting</w>": 2521, "ts,</w>": 2522, "rath.</w>": 2523, "hid</w>": 2524, "mpest:</w>": 2525, "sight.</w>": 2526, "cour": 2527, "tality</w>": 2528, "mow</w>": 2529, "ilan,</w>": 2530, "rist's</w>": 2531, "chest</w>": 2532, "west</w>": 2533, "reared</w>": 2534, "belo": 2535, "purposes</w>": 2536, "ren.</w>": 2537, "tisans!</w>": 2538, "neaded</w>": 2539, "monition</w>": 2540, "stitute</w>": 2541, "nar": 2542, "leather</w>": 2543, "C": 2544, "whelp</w>": 2545, "Leads</w>": 2546, "Promo": 2547, "spite": 2548, "bale.</w>": 2549, "ade</w>": 2550, "band,</w>": 2551, "aspe": 2552, "heating</w>": 2553, "pose": 2554, "venom</w>": 2555, "Mariner": 2556, "des": 2557, "fees,</w>": 2558, "diligen": 2559, "ren,</w>": 2560, "fade": 2561, "cule,</w>": 2562, "quited</w>": 2563, "Master,</w>": 2564, "gents,</w>": 2565, "dalu": 2566, "ming,</w>": 2567, "nareth</w>": 2568, "gelo,</w>": 2569, "ping</w>": 2570, "las": 2571, "Ready</w>": 2572, "mper</w>": 2573, "galled</w>": 2574, "pan,</w>": 2575, "water,</w>": 2576, "out": 2577, "can,</w>": 2578, "tery</w>": 2579, "leads</w>": 2580, "lad,</w>": 2581, "When,</w>": 2582, "illou": 2583, "ckingham</w>": 2584, "BAN": 2585, "finger</w>": 2586, "mad?</w>": 2587, "reen</w>": 2588, "love,</w>": 2589, "other,</w>": 2590, "orable</w>": 2591, "penitent</w>": 2592, "spent.</w>": 2593, "neat": 2594, "fallow</w>": 2595, "pingha": 2596, "bating": 2597, "ventory</w>": 2598, "dello.</w>": 2599, "gu": 2600, "lish,</w>": 2601, "baby</w>": 2602, "vine.</w>": 2603, "crown</w>": 2604, "care,</w>": 2605, "bent:</w>": 2606, "bathed</w>": 2607, "allies</w>": 2608, "mest</w>": 2609, "cullus</w>": 2610, "rist": 2611, "lies!</w>": 2612, "EDWARD</w>": 2613, "sad.</w>": 2614, "rit</w>": 2615, "it:</w>": 2616, "ren:</w>": 2617, "Cala": 2618, "thol": 2619, "mbering</w>": 2620, "wit</w>": 2621, "thine": 2622, "BRUTUS:</w>": 2623, "tom</w>": 2624, "need</w>": 2625, "Believe</w>": 2626, "lente": 2627, "disease:</w>": 2628, "lesh,</w>": 2629, "lenti": 2630, "ul</w>": 2631, "desolate,</w>": 2632, "wasp</w>": 2633, "cherish": 2634, "supposes</w>": 2635, "sparing</w>": 2636, "ron,</w>": 2637, "opatra</w>": 2638, "ali": 2639, "Bel": 2640, "shout": 2641, "dentally</w>": 2642, "Bid</w>": 2643, "Sad": 2644, "mast</w>": 2645, "esti": 2646, "Satis": 2647, "mpor": 2648, "ly.</w>": 2649, "ke</w>": 2650, "grieve</w>": 2651, "ghter,</w>": 2652, "run</w>": 2653, "dent</w>": 2654, "pollos</w>": 2655, "mi": 2656, "stinging</w>": 2657, "lir": 2658, "posterous</w>": 2659, "pint</w>": 2660, "nature</w>": 2661, "lash</w>": 2662, "unc": 2663, "said</w>": 2664, "mpiri": 2665, "dined</w>": 2666, "then'd</w>": 2667, "mutinou": 2668, "brat</w>": 2669, "call</w>": 2670, "aslee": 2671, "mutation</w>": 2672, "breast.</w>": 2673, "ried</w>": 2674, "aching</w>": 2675, "dal": 2676, ".": 2677, "pardon</w>": 2678, "desires;</w>": 2679, "rowing</w>": 2680, "ware</w>": 2681, "cabin": 2682, "mit</w>": 2683, "punish": 2684, "part</w>": 2685, "sen</w>": 2686, "allies;</w>": 2687, "non:</w>": 2688, "Go</w>": 2689, "habitab": 2690, "den.</w>": 2691, "fer": 2692, "leash,</w>": 2693, "iries.</w>": 2694, "valour</w>": 2695, "fires?</w>": 2696, "tures?</w>": 2697, "What?</w>": 2698, "stupe": 2699, "des.</w>": 2700, "lories</w>": 2701, "coming,</w>": 2702, "E</w>": 2703, "gates;</w>": 2704, "fire,</w>": 2705, "gash</w>": 2706, "pprove</w>": 2707, "gon,</w>": 2708, "solace:</w>": 2709, "ist": 2710, "respites</w>": 2711, "coffin</w>": 2712, "parents,</w>": 2713, "ley</w>": 2714, "lad!</w>": 2715, "breathes</w>": 2716, "cheat</w>": 2717, "bent</w>": 2718, "soles:</w>": 2719, "mads</w>": 2720, "aspire</w>": 2721, "uti": 2722, "piles</w>": 2723, "oon</w>": 2724, "tune</w>": 2725, "vative</w>": 2726, "pel": 2727, "Rome": 2728, "puling</w>": 2729, "Your</w>": 2730, "truth,</w>": 2731, "gate,</w>": 2732, "kind!</w>": 2733, "mutini": 2734, "whined</w>": 2735, "ken:</w>": 2736, "CAR": 2737, "dau": 2738, "food</w>": 2739, "trun": 2740, "ently</w>": 2741, "les;</w>": 2742, "vening</w>": 2743, "hat": 2744, "ceans</w>": 2745, "slay</w>": 2746, "RAN": 2747, "seat": 2748, "rand</w>": 2749, "lowering</w>": 2750, "kest;</w>": 2751, "ac": 2752, "cents</w>": 2753, "es:</w>": 2754, "shade</w>": 2755, "easureless</w>": 2756, "sup": 2757, "ces</w>": 2758, "besh": 2759, "rates;</w>": 2760, "lat": 2761, "its</w>": 2762, "stoutly</w>": 2763, "merest</w>": 2764, "mpu": 2765, "uns</w>": 2766, "trade</w>": 2767, "telle": 2768, "there": 2769, "belly</w>": 2770, "foll": 2771, "allow</w>": 2772, "breath": 2773, "play,</w>": 2774, "en": 2775, "cis</w>": 2776, "Binaca": 2777, "theads</w>": 2778, "miled</w>": 2779, "foul": 2780, "miserable</w>": 2781, "ight": 2782, "entombed</w>": 2783, "cate": 2784, "finest</w>": 2785, "twent": 2786, "There.</w>": 2787, "ritories;</w>": 2788, "rete,</w>": 2789, "Ben": 2790, "x": 2791, "lowing</w>": 2792, "stle</w>": 2793, "cheveril": 2794, "noon</w>": 2795, "reveren": 2796, "lan": 2797, "Care</w>": 2798, "faces</w>": 2799, "ones;</w>": 2800, "elay</w>": 2801, "mile</w>": 2802, "AU": 2803, "gati": 2804, "rowe": 2805, "roy?</w>": 2806, "least.</w>": 2807, "statutes</w>": 2808, "honesty</w>": 2809, "hore,</w>": 2810, "eyes</w>": 2811, "child": 2812, "lout,</w>": 2813, "isterous</w>": 2814, "means:</w>": 2815, "dispos": 2816, "Come</w>": 2817, "dow</w>": 2818, "bunes!</w>": 2819, "ts</w>": 2820, "dishes": 2821, "tat": 2822, "mally,</w>": 2823, "ashore</w>": 2824, "pin": 2825, "comes?</w>": 2826, "laun": 2827, "on,</w>": 2828, "gate": 2829, "lasting": 2830, "bey</w>": 2831, "ining</w>": 2832, "vinest</w>": 2833, "chests</w>": 2834, "pleasure</w>": 2835, "unear": 2836, "wit's</w>": 2837, "adu": 2838, "rests,</w>": 2839, "zen'd</w>": 2840, "tera": 2841, "poperin</w>": 2842, "spite.</w>": 2843, "venture.</w>": 2844, "brat's</w>": 2845, "mele": 2846, "ullu": 2847, "stir": 2848, "vine</w>": 2849, "unci": 2850, "wet</w>": 2851, "whoo": 2852, "stigati": 2853, "if</w>": 2854, "stinen": 2855, "uno,</w>": 2856, "readines": 2857, "stint</w>": 2858, "is!</w>": 2859, "less</w>": 2860, "dute": 2861, "berate,</w>": 2862, "list;</w>": 2863, "wallow": 2864, "Seest</w>": 2865, "dale,</w>": 2866, "Uneven</w>": 2867, "kel": 2868, "o.</w>": 2869, "lunati": 2870, "won": 2871, "n.</w>": 2872, "cal</w>": 2873, "genet</w>": 2874, "visor": 2875, "madam</w>": 2876, "house</w>": 2877, "lesti": 2878, "combatan": 2879, "mitigable</w>": 2880, "woo'd</w>": 2881, "eat.</w>": 2882, "wise</w>": 2883, "roping</w>": 2884, "o'er</w>": 2885, "gen": 2886, "care": 2887, "daring": 2888, "LUCIO:</w>": 2889, "ready</w>": 2890, "eats</w>": 2891, "ner": 2892, "donab": 2893, "nories,</w>": 2894, "d</w>": 2895, "lo,</w>": 2896, "dile": 2897, "keep</w>": 2898, "face</w>": 2899, "ten": 2900, "miserab": 2901, "gestion</w>": 2902, "twig": 2903, "een:</w>": 2904, "silly</w>": 2905, "posted</w>": 2906, "put": 2907, "steal</w>": 2908, "taly.</w>": 2909, "Gold</w>": 2910, "go,</w>": 2911, "light</w>": 2912, "CAPULET:</w>": 2913, "D:</w>": 2914, "well</w>": 2915, "nomy</w>": 2916, "cing</w>": 2917, "are,</w>": 2918, "meriting,</w>": 2919, "benevolen": 2920, "merciles": 2921, "ven,</w>": 2922, "mory</w>": 2923, "pith</w>": 2924, "doom</w>": 2925, "they,</w>": 2926, "ean</w>": 2927, "Seal": 2928, "nights,</w>": 2929, "Yet</w>": 2930, "brats,</w>": 2931, "call,</w>": 2932, "ow": 2933, "ment.</w>": 2934, "rill</w>": 2935, "meles": 2936, "mo": 2937, "Th": 2938, "granate": 2939, "serving": 2940, "sents,</w>": 2941, "Belon": 2942, "dig</w>": 2943, "Reason": 2944, "cit": 2945, "betwi": 2946, "orisons</w>": 2947, "owever</w>": 2948, "reme": 2949, "pity</w>": 2950, "whit</w>": 2951, "gored</w>": 2952, "shares</w>": 2953, "ur": 2954, "place.</w>": 2955, "reely</w>": 2956, "roness</w>": 2957, "bones.</w>": 2958, "houn": 2959, "rey,</w>": 2960, "cali": 2961, "ght!</w>": 2962, "hell": 2963, "ent.</w>": 2964, "safe": 2965, "restore": 2966, "bunch": 2967, "isure.</w>": 2968, "cean</w>": 2969, "ga": 2970, "reade": 2971, "cheru": 2972, "will": 2973, "is</w>": 2974, "cent:</w>": 2975, "grate": 2976, "lad;</w>": 2977, "dalous</w>": 2978, "ir,</w>": 2979, "rall</w>": 2980, "west?</w>": 2981, "tra": 2982, "Whither</w>": 2983, "rath</w>": 2984, "cury,</w>": 2985, "liest:</w>": 2986, "sureti": 2987, "honest": 2988, "mules,</w>": 2989, "mon.</w>": 2990, "s!</w>": 2991, "youn": 2992, "enac": 2993, "sit</w>": 2994, "biga": 2995, "lost": 2996, "been": 2997, "tunes</w>": 2998, "about?</w>": 2999, "dee": 3000, "cute</w>": 3001, "cope</w>": 3002, "what;</w>": 3003, "cathe</w>": 3004, "pose,</w>": 3005, "Li": 3006, "heading</w>": 3007, "solution</w>": 3008, "ist!</w>": 3009, "between:</w>": 3010, "Autol": 3011, "curi": 3012, "ingratitu": 3013, "stopping</w>": 3014, "upon": 3015, "vish</w>": 3016, "ash</w>": 3017, "loves:</w>": 3018, "ansoming</w>": 3019, "cold</w>": 3020, "mbol": 3021, "cher</w>": 3022, "lines,</w>": 3023, "theme</w>": 3024, "surel": 3025, "cent</w>": 3026, "ler": 3027, "toop</w>": 3028, "justi": 3029, "tened</w>": 3030, "ESS</w>": 3031, "IAN": 3032, "know</w>": 3033, "iterate</w>": 3034, "ringing": 3035, "herald</w>": 3036, "merited</w>": 3037, "believed</w>": 3038, "illo": 3039, "posture.</w>": 3040, "dan": 3041, "cise</w>": 3042, "bilit": 3043, "please.</w>": 3044, "dis</w>": 3045, "despise</w>": 3046, "feet</w>": 3047, "tex": 3048, "vile": 3049, "trarie": 3050, "ger</w>": 3051, "enelau": 3052, "solu": 3053, "happ": 3054, "There": 3055, "close</w>": 3056, "level</w>": 3057, "sado": 3058, "banish": 3059, "weat.</w>": 3060, "titor": 3061, "eror": 3062, "mental</w>": 3063, "rises</w>": 3064, "ged</w>": 3065, "Whoop": 3066, "stril</w>": 3067, "gh": 3068, "reely.</w>": 3069, "H": 3070, "betra": 3071, "gow": 3072, "combat</w>": 3073, "culous</w>": 3074, "les,</w>": 3075, "tan": 3076, "ret,</w>": 3077, "lure</w>": 3078, "thereto</w>": 3079, "do't</w>": 3080, "peal": 3081, "least?</w>": 3082, "Second</w>": 3083, "sprites;</w>": 3084, "lenit": 3085, "tunate.</w>": 3086, "pen": 3087, "sey,</w>": 3088, "foo": 3089, "cales</w>": 3090, "bunc": 3091, "bras": 3092, "whereso": 3093, "sight!</w>": 3094, "nur": 3095, "Beating</w>": 3096, "collop": 3097, "Bur": 3098, "ises,</w>": 3099, "enes:</w>": 3100, "has,</w>": 3101, "fishi": 3102, "Light</w>": 3103, "vanity</w>": 3104, "sad:</w>": 3105, "testate</w>": 3106, "er": 3107, "compositi": 3108, "las</w>": 3109, "vines.</w>": 3110, "Sac": 3111, "spirit,</w>": 3112, "peat</w>": 3113, "p": 3114, "reasons</w>": 3115, "ney.</w>": 3116, "ase,</w>": 3117, "cis": 3118, "hither</w>": 3119, "reel": 3120, "desperati": 3121, "BY:</w>": 3122, "lowere": 3123, "pent": 3124, "popular</w>": 3125, "dares</w>": 3126, "ores": 3127, "ous.</w>": 3128, "relate.</w>": 3129, "ke,</w>": 3130, "sh</w>": 3131, "hat!</w>": 3132, "ack": 3133, "lon": 3134, "combed</w>": 3135, "case</w>": 3136, "terat": 3137, "man.</w>": 3138, "sonal": 3139, "sin": 3140, "pleasing</w>": 3141, "ham</w>": 3142, "ans,</w>": 3143, "na</w>": 3144, "bel</w>": 3145, "misery</w>": 3146, "oppro": 3147, "vish": 3148, "Con</w>": 3149, "stones</w>": 3150, "cup": 3151, "Bold</w>": 3152, "combinate</w>": 3153, "plead,</w>": 3154, "calling": 3155, "twine</w>": 3156, "bill": 3157, "reser": 3158, "whereto</w>": 3159, "gun.</w>": 3160, "ompact</w>": 3161, "reate": 3162, "fight</w>": 3163, "disease": 3164, "lora</w>": 3165, "zenith</w>": 3166, "mpos": 3167, "coronati": 3168, "rupper": 3169, "mbrace</w>": 3170, "bespi": 3171, "bad!</w>": 3172, "culi": 3173, "lower</w>": 3174, "disin": 3175, "key,</w>": 3176, "tent;</w>": 3177, "sting</w>": 3178, "mes": 3179, "vile,</w>": 3180, "ashore.</w>": 3181, "dings</w>": 3182, "south</w>": 3183, "vine,</w>": 3184, "sigh,</w>": 3185, "sen:</w>": 3186, "ANGELO:</w>": 3187, "rule": 3188, "please,</w>": 3189, "Been</w>": 3190, "lourishe": 3191, "riting</w>": 3192, "ghan,</w>": 3193, "iring,</w>": 3194, "O,</w>": 3195, "rey!</w>": 3196, "dishes;</w>": 3197, "hoping</w>": 3198, "ales.</w>": 3199, "ina": 3200, "estate,</w>": 3201, "dishonourab": 3202, "combating</w>": 3203, "ca</w>": 3204, "mpar": 3205, "ans!</w>": 3206, "lare.</w>": 3207, "terat</w>": 3208, "anon,</w>": 3209, "ones,</w>": 3210, "fully,</w>": 3211, "ditor": 3212, "misprou": 3213, "with": 3214, "senting</w>": 3215, "done.</w>": 3216, "hear": 3217, "rent</w>": 3218, "loren": 3219, "as</w>": 3220, "rites:</w>": 3221, "do'": 3222, "preserving</w>": 3223, "kes;</w>": 3224, "ned</w>": 3225, "reven": 3226, "beys</w>": 3227, "rish</w>": 3228, "rut": 3229, "paradise,</w>": 3230, "ill": 3231, "general": 3232, "singularit": 3233, "vel": 3234, "feat,</w>": 3235, "ease": 3236, "nothing</w>": 3237, "stin": 3238, "ash,</w>": 3239, "pes:</w>": 3240, "canop": 3241, "stron": 3242, "ceso": 3243, "w": 3244, "believing</w>": 3245, "sellor": 3246, "fester</w>": 3247, "thee,</w>": 3248, "oned</w>": 3249, "Lead": 3250, "ighteen</w>": 3251, "parisoned</w>": 3252, "sir": 3253, "QUEEN": 3254, "ight's</w>": 3255, "childish": 3256, "sel</w>": 3257, "shower": 3258, "quiring</w>": 3259, "war": 3260, "bower": 3261, "tir</w>": 3262, "ck'd</w>": 3263, "preach": 3264, "Has</w>": 3265, "D": 3266, "No.</w>": 3267, "vowed</w>": 3268, "talit": 3269, "delight,</w>": 3270, "silent,</w>": 3271, "naturally</w>": 3272, "OL": 3273, "UT": 3274, "gain.</w>": 3275, "rab": 3276, "breathed</w>": 3277, "eyes,</w>": 3278, "bespeak.</w>": 3279, "bower</w>": 3280, "Sups</w>": 3281, "rit:</w>": 3282, "beral</w>": 3283, "IA:</w>": 3284, "ace</w>": 3285, "uliet</w>": 3286, "du": 3287, "vesture</w>": 3288, "lut": 3289, "use</w>": 3290, "pents</w>": 3291, "rest</w>": 3292, "war</w>": 3293, "ha": 3294, "mercenar": 3295, "misty</w>": 3296, "ruth,</w>": 3297, "nat": 3298, "dop": 3299, "hu": 3300, "highest.</w>": 3301, "showing,</w>": 3302, "head-": 3303, "u": 3304, "son,</w>": 3305, "Henry</w>": 3306, "stomary</w>": 3307, "ghts</w>": 3308, "pes,</w>": 3309, "sights,</w>": 3310, "evon": 3311, "Even</w>": 3312, "ease,</w>": 3313, "mpering</w>": 3314, "room": 3315, "CLE": 3316, "me?</w>": 3317, "Bey": 3318, "When": 3319, "Z": 3320, "copi": 3321, "hi": 3322, "neat;</w>": 3323, "dowhoo": 3324, "year": 3325, "boring</w>": 3326, "bill,</w>": 3327, "By</w>": 3328, "meless</w>": 3329, "jest": 3330, "stitutes</w>": 3331, "Lit": 3332, "bury,</w>": 3333, "core</w>": 3334, "than</w>": 3335, "feal": 3336, "milliner</w>": 3337, "taste": 3338, "can": 3339, "Canst</w>": 3340, "isure,</w>": 3341, "hans,</w>": 3342, "mas,</w>": 3343, ",</w>": 3344, "kind</w>": 3345, "home,</w>": 3346, "dart</w>": 3347, "come.</w>": 3348, "right</w>": 3349, "te</w>": 3350, "mire,</w>": 3351, "eroni": 3352, "winge</w>": 3353, "bene": 3354, "quite</w>": 3355, "oner": 3356, "mas:</w>": 3357, "prison:</w>": 3358, "iti": 3359, "inate</w>": 3360, "than": 3361, "dinand,</w>": 3362, "stati": 3363, "mate.</w>": 3364, "ulling</w>": 3365, "terati": 3366, "ight:</w>": 3367, "3": 3368, "list.</w>": 3369, "supplan": 3370, "yellow</w>": 3371, "here</w>": 3372, "sabel</w>": 3373, "hasten</w>": 3374, "preme": 3375, "spa": 3376, "coming</w>": 3377, "ach": 3378, "mpo": 3379, "prison,</w>": 3380, "ley;</w>": 3381, "meet</w>": 3382, "cease</w>": 3383, "huse": 3384, "Who's</w>": 3385, "thus</w>": 3386, "comb": 3387, "bune</w>": 3388, "roye": 3389, "ither,</w>": 3390, "ston": 3391, "May,</w>": 3392, "all,</w>": 3393, "valour": 3394, "herent</w>": 3395, "Goo": 3396, "yer</w>": 3397, "ally,</w>": 3398, "meaning</w>": 3399, "whom,</w>": 3400, "st;</w>": 3401, "reator": 3402, "stoop</w>": 3403, "finger": 3404, "teen": 3405, "ads,</w>": 3406, "gerous</w>": 3407, "woo</w>": 3408, "lad</w>": 3409, "fish,</w>": 3410, "stone</w>": 3411, "sheathing": 3412, "ool": 3413, "cent.</w>": 3414, "truly</w>": 3415, "peach": 3416, "fullest</w>": 3417, "steed</w>": 3418, "cure</w>": 3419, "prompt</w>": 3420, "fa</w>": 3421, "hill</w>": 3422, "atharina</w>": 3423, "and,</w>": 3424, "him": 3425, "beats</w>": 3426, "baris": 3427, "wish,</w>": 3428, "why</w>": 3429, "sir</w>": 3430, "wester": 3431, "ON": 3432, "home": 3433, "south.</w>": 3434, "seest</w>": 3435, "disad": 3436, "een": 3437, "like</w>": 3438, "jun": 3439, "delay</w>": 3440, "NORTHUMBERLAND:</w>": 3441, "feel</w>": 3442, "eyes:</w>": 3443, "ruly</w>": 3444, "feasts,</w>": 3445, "self</w>": 3446, "moon</w>": 3447, "ower": 3448, "BENVOLIO:</w>": 3449, "plated</w>": 3450, "pack</w>": 3451, "st</w>": 3452, "cat.</w>": 3453, "Bo": 3454, "velure,</w>": 3455, "trade.</w>": 3456, "abreast,</w>": 3457, "women": 3458, "feverous</w>": 3459, "right;</w>": 3460, "US:</w>": 3461, "nine.</w>": 3462, "elutus,</w>": 3463, "wasp": 3464, "daf": 3465, "muse</w>": 3466, "our</w>": 3467, "master": 3468, "aches;</w>": 3469, "an.</w>": 3470, "tuns</w>": 3471, "even</w>": 3472, "native</w>": 3473, "sops</w>": 3474, "duke</w>": 3475, "eye": 3476, "bi": 3477, "there</w>": 3478, "gerous.</w>": 3479, "tight</w>": 3480, "positi": 3481, "No": 3482, "This": 3483, "prelate</w>": 3484, "th.</w>": 3485, "lean": 3486, "van": 3487, "K": 3488, "jesty</w>": 3489, "jury,</w>": 3490, "rooping</w>": 3491, "featly</w>": 3492, "hed</w>": 3493, "ista</w>": 3494, "isplan": 3495, "about;</w>": 3496, "tany</w>": 3497, "easi": 3498, "rily</w>": 3499, "thaca</w>": 3500, "That</w>": 3501, "roses;</w>": 3502, "right": 3503, "dolour</w>": 3504, "lings</w>": 3505, "ransom,</w>": 3506, "len": 3507, "faces;</w>": 3508, "BOLINGBROKE:</w>": 3509, "ady</w>": 3510, "grieved</w>": 3511, "eed</w>": 3512, "viney": 3513, "bone,</w>": 3514, "ather</w>": 3515, "oman,</w>": 3516, "Un": 3517, "bastar": 3518, "ET:</w>": 3519, "vereig": 3520, "populous</w>": 3521, "solent</w>": 3522, "borou": 3523, "pits,</w>": 3524, "sithen": 3525, "is?</w>": 3526, "X": 3527, "reshest</w>": 3528, "brow</w>": 3529, "laboure": 3530, "enes</w>": 3531, "arise:</w>": 3532, "ppo": 3533, "culate,</w>": 3534, "come,</w>": 3535, "dash</w>": 3536, "cab": 3537, "are": 3538, "trunche": 3539, "stooping": 3540, "was?</w>": 3541, "sent;</w>": 3542, "pable</w>": 3543, "looming</w>": 3544, "rack.</w>": 3545, "fect</w>": 3546, "dest:</w>": 3547, "rising": 3548, "afoo": 3549, "basis</w>": 3550, "Y": 3551, "loves,</w>": 3552, "Gor": 3553, "Respe": 3554, "an</w>": 3555, "Which</w>": 3556, "asha": 3557, "reaty</w>": 3558, "cures</w>": 3559, "atone</w>": 3560, "cholar</w>": 3561, "proro": 3562, "truth": 3563, "teat.</w>": 3564, "hits</w>": 3565, "lenished</w>": 3566, "swear</w>": 3567, "doom.</w>": 3568, "chats</w>": 3569, "feeling</w>": 3570, "room,</w>": 3571, "which</w>": 3572, "again.</w>": 3573, "peat;</w>": 3574, "alack</w>": 3575, "alon": 3576, "cut": 3577, "plead;</w>": 3578, "dured</w>": 3579, "ghty</w>": 3580, "calle": 3581, "Thine</w>": 3582, "visor</w>": 3583, "ope,</w>": 3584, "wen": 3585, "ries.</w>": 3586, "fares.</w>": 3587, "fo": 3588, "hil": 3589, "iting,</w>": 3590, "made</w>": 3591, "cut?</w>": 3592, "Sea": 3593, "sight;</w>": 3594, "ces'</w>": 3595, "vi": 3596, "rarest</w>": 3597, "beralit": 3598, "trat": 3599, "llab": 3600, "ming": 3601, "mish,</w>": 3602, "Q": 3603, "mish": 3604, "inola": 3605, "label</w>": 3606, "fitly</w>": 3607, "hint</w>": 3608, "bat": 3609, "revive</w>": 3610, "fringed</w>": 3611, "moons</w>": 3612, "pparel</w>": 3613, "ather,</w>": 3614, "beye": 3615, "pos": 3616, "rups</w>": 3617, "sin</w>": 3618, "Peruse</w>": 3619, "mes?</w>": 3620, "miles</w>": 3621, "diligent</w>": 3622, "Dull</w>": 3623, "following,</w>": 3624, "nished</w>": 3625, "suf": 3626, "prings</w>": 3627, "llow</w>": 3628, "ure</w>": 3629, "vin</w>": 3630, "sto": 3631, "full": 3632, "asted</w>": 3633, "ealous</w>": 3634, "big</w>": 3635, "Third</w>": 3636, "reasonab": 3637, "pure</w>": 3638, "breathing</w>": 3639, "teaching": 3640, "misad": 3641, "while,</w>": 3642, "brother": 3643, "tinent:</w>": 3644, "poorest</w>": 3645, "vine": 3646, "ppeal</w>": 3647, "her</w>": 3648, "chopped</w>": 3649, "raditi": 3650, "fasting,</w>": 3651, "stee": 3652, "speed</w>": 3653, "ristopher</w>": 3654, "melan": 3655, "spite,</w>": 3656, "wilt</w>": 3657, "senate.</w>": 3658, "pen'd</w>": 3659, "fellow": 3660, "leaf</w>": 3661, "HOR": 3662, "us.</w>": 3663, "mira": 3664, "non": 3665, "li": 3666, "open.</w>": 3667, "cellent</w>": 3668, "past.</w>": 3669, "eat,</w>": 3670, "I,</w>": 3671, "ten,</w>": 3672, "t!</w>": 3673, "read,</w>": 3674, "g": 3675, "bery,</w>": 3676, "milest</w>": 3677, "ele": 3678, "alo": 3679, "die</w>": 3680, "heed</w>": 3681, "follow</w>": 3682, "uneven,</w>": 3683, "Peace,</w>": 3684, "liest,</w>": 3685, "dinar": 3686, "states": 3687, "future</w>": 3688, "Gentles,</w>": 3689, "neel</w>": 3690, "Thou</w>": 3691, "near</w>": 3692, "eat</w>": 3693, "tali": 3694, "wron": 3695, "wan</w>": 3696, "tithe": 3697, "Sal": 3698, "ransack'd</w>": 3699, "?": 3700, "mentab": 3701, "speak,</w>": 3702, "nowing</w>": 3703, "cir": 3704, "tried</w>": 3705, "land</w>": 3706, "rests</w>": 3707, "por": 3708, "vation</w>": 3709, "vish,</w>": 3710, "hale</w>": 3711, "unis,</w>": 3712, "two,</w>": 3713, "ilely</w>": 3714, "wish": 3715, "prison</w>": 3716, "dead;</w>": 3717, "poni": 3718, "dello": 3719, "allies,</w>": 3720, "cooling</w>": 3721, "visitor": 3722, "tunate,</w>": 3723, "besee": 3724, "vive</w>": 3725, "PETRUCHIO:</w>": 3726, "mas</w>": 3727, "reat": 3728, "ach</w>": 3729, "gory</w>": 3730, "erely,</w>": 3731, "ture.</w>": 3732, "posing</w>": 3733, "lop</w>": 3734, "tents,</w>": 3735, "seas:</w>": 3736, "gentle.</w>": 3737, "gran": 3738, "ca": 3739, "pigo,</w>": 3740, "wiser</w>": 3741, "vir": 3742, "tac": 3743, "canor": 3744, "devouring</w>": 3745, "heade": 3746, "heel</w>": 3747, "honey": 3748, "props</w>": 3749, "honest.</w>": 3750, "ppose": 3751, "son:</w>": 3752, "enta": 3753, "feasted</w>": 3754, "stain</w>": 3755, "estee": 3756, "saries.</w>": 3757, "stan": 3758, "vato": 3759, "ceal</w>": 3760, "ma</w>": 3761, "wishing,</w>": 3762, "paste</w>": 3763, "ppily</w>": 3764, "read?</w>": 3765, "coronet</w>": 3766, "sistory,</w>": 3767, "pillow": 3768, "ble</w>": 3769, "ve</w>": 3770, "supposed</w>": 3771, "ringer": 3772, "chaste,</w>": 3773, "ches": 3774, "rest,</w>": 3775, "bestrid</w>": 3776, "hare</w>": 3777, "bute</w>": 3778, "cor</w>": 3779, "rost.</w>": 3780, "seven:</w>": 3781, "way,</w>": 3782, "hour": 3783, "lar</w>": 3784, "purpose,</w>": 3785, "mulation</w>": 3786, "onally,</w>": 3787, "springing</w>": 3788, "feast,</w>": 3789, "shade,</w>": 3790, "thou</w>": 3791, "ve.</w>": 3792, "mpose:</w>": 3793, "to-": 3794, "path</w>": 3795, "in,</w>": 3796, "achi": 3797, "Made</w>": 3798, "mprison": 3799, "il": 3800, "pace.</w>": 3801, "ms</w>": 3802, "Lest</w>": 3803, "sisted</w>": 3804, "ale</w>": 3805, "whate": 3806, "ney</w>": 3807, "child,</w>": 3808, "ast</w>": 3809, "is.</w>": 3810, "Servant:</w>": 3811, "tabour</w>": 3812, "visits</w>": 3813, "ving,</w>": 3814, "r": 3815, "tit": 3816, "spor": 3817, "ollow": 3818, "do,</w>": 3819, "tower": 3820, "bathe</w>": 3821, "yed</w>": 3822, "jured</w>": 3823, "belove": 3824, "gown</w>": 3825, "berate</w>": 3826, "gasping</w>": 3827, "ting": 3828, "cal": 3829, "macks</w>": 3830, "val</w>": 3831, "chase</w>": 3832, "see.</w>": 3833, "vines,</w>": 3834, "Dow": 3835, "relie": 3836, "sea": 3837, "this,</w>": 3838, "II:</w>": 3839, "shining</w>": 3840, "present,</w>": 3841, "line": 3842, "cha": 3843, "comfor": 3844, "pollo's</w>": 3845, "rack'd</w>": 3846, "kinds,</w>": 3847, "ches?</w>": 3848, "mbrace:</w>": 3849, "omen": 3850, "le.</w>": 3851, "tales</w>": 3852, "find</w>": 3853, "woman</w>": 3854, "Mas": 3855, "parison:</w>": 3856, "reen,</w>": 3857, "vente": 3858, "Mari": 3859, "isor": 3860, "restorati": 3861, "sings</w>": 3862, "cholas,</w>": 3863, "quireth</w>": 3864, "stom.</w>": 3865, "s;</w>": 3866, "uncer": 3867, "aning</w>": 3868, "ces:</w>": 3869, "stare,</w>": 3870, "stran": 3871, "mutu": 3872, "veable</w>": 3873, "senti": 3874, "tar": 3875, "LE:</w>": 3876, "gho": 3877, "mped</w>": 3878, "igh</w>": 3879, "Mates,</w>": 3880, "Real</w>": 3881, "mous</w>": 3882, "madst</w>": 3883, "tite,</w>": 3884, "olator": 3885, "tesi": 3886, "pretation</w>": 3887, "nit</w>": 3888, "graces</w>": 3889, "state</w>": 3890, "believest</w>": 3891, "rit": 3892, "ison'd</w>": 3893, "mere</w>": 3894, "this": 3895, "delight": 3896, "uncur": 3897, "lee": 3898, "luto</w>": 3899, "ght.</w>": 3900, "funeral": 3901, "manure</w>": 3902, "hat,</w>": 3903, "state": 3904, "pastime</w>": 3905, "meaco": 3906, "what's</w>": 3907, "s,</w>": 3908, "materi": 3909, "den:</w>": 3910, "lest.</w>": 3911, "bearing</w>": 3912, "child!</w>": 3913, "you.</w>": 3914, "owe</w>": 3915, "devour": 3916, "son": 3917, "bell</w>": 3918, "chan": 3919, "makes</w>": 3920, "gene": 3921, "quis</w>": 3922, "'That</w>": 3923, "beasts</w>": 3924, "hus": 3925, "they?</w>": 3926, "the</w>": 3927, "habili": 3928, "ilest</w>": 3929, "will</w>": 3930, "st.</w>": 3931, "piration</w>": 3932, "twin,</w>": 3933, "pleased</w>": 3934, "life": 3935, "least</w>": 3936, "pes.</w>": 3937, "melling</w>": 3938, "wean": 3939, "dit,</w>": 3940, "please</w>": 3941, "woo": 3942, "lately</w>": 3943, "late.</w>": 3944, "tu": 3945, "woo,</w>": 3946, "vali": 3947, "ling</w>": 3948, "isure</w>": 3949, "rithee</w>": 3950, "MIST": 3951, "vinely</w>": 3952, "fal</w>": 3953, "spar": 3954, "think</w>": 3955, "gentlenes": 3956, "night</w>": 3957, "shilling": 3958, "yest</w>": 3959, "tish</w>": 3960, "Provo": 3961, "peniten": 3962, "lis": 3963, "stall</w>": 3964, "re.</w>": 3965, "cable</w>": 3966, "k.</w>": 3967, "vent</w>": 3968, "olive</w>": 3969, "cution</w>": 3970, "mutin": 3971, "tinen": 3972, "sounder</w>": 3973, "another": 3974, "figuring</w>": 3975, "ces;</w>": 3976, "ones": 3977, "nestly</w>": 3978, "night:</w>": 3979, "butor": 3980, "ked</w>": 3981, "some.</w>": 3982, "shal": 3983, "ge,</w>": 3984, "dead</w>": 3985, "purposed</w>": 3986, "whoreson</w>": 3987, "restore</w>": 3988, "ropping</w>": 3989, "buts,</w>": 3990, "singular</w>": 3991, "revel": 3992, "colour</w>": 3993, "ighton,</w>": 3994, "ken,</w>": 3995, "long</w>": 3996, "cisi": 3997, "pome": 3998, "tur": 3999, "span": 4000, "wins</w>": 4001, "Bishop</w>": 4002, "Who": 4003, "rare,</w>": 4004, "race</w>": 4005, "brach": 4006, "st,</w>": 4007, "eyes": 4008, "one.</w>": 4009, "reads</w>": 4010, "prou": 4011, "tile": 4012, "mis": 4013, "case:</w>": 4014, "le</w>": 4015, "dely</w>": 4016, "sade,</w>": 4017, "top": 4018, "Mutu": 4019, "lories!</w>": 4020, "pleasures;</w>": 4021, "seen.</w>": 4022, "bring</w>": 4023, "cene,</w>": 4024, "paly</w>": 4025, "ro": 4026, "Profaner": 4027, "chase": 4028, "Things</w>": 4029, "stand,</w>": 4030, "singulariti": 4031, "inest</w>": 4032, "Lead</w>": 4033, "spired</w>": 4034, "crow": 4035, "they": 4036, "light!</w>": 4037, "spits</w>": 4038, "reys</w>": 4039, "wan": 4040, "Supp": 4041, "fooling</w>": 4042, "ges;</w>": 4043, "holier</w>": 4044, "God</w>": 4045, "twisted</w>": 4046, "g</w>": 4047, "roop,</w>": 4048, "teen.</w>": 4049, "deal</w>": 4050, "bul": 4051, "whisper</w>": 4052, "diso": 4053, "quish": 4054, "men.</w>": 4055, "Enou": 4056, "ading</w>": 4057, "isins</w>": 4058, "rees": 4059, "ashes</w>": 4060, "spitable</w>": 4061, "Safe": 4062, "lift</w>": 4063, "penitent,</w>": 4064, "Was</w>": 4065, "jealous,</w>": 4066, "Well,</w>": 4067, "back.</w>": 4068, "canst,</w>": 4069, "unat": 4070, "pere": 4071, "let's</w>": 4072, "sal": 4073, "jest:</w>": 4074, "tol</w>": 4075, "iring</w>": 4076, "lour</w>": 4077, "pret</w>": 4078, "council</w>": 4079, "fish": 4080, "pin.</w>": 4081, "llable</w>": 4082, "done,</w>": 4083, "Hall,</w>": 4084, "followed</w>": 4085, "las!</w>": 4086, "ESCALUS:</w>": 4087, "lutes.</w>": 4088, "taller</w>": 4089, "Cato's</w>": 4090, "be": 4091, "dine,</w>": 4092, "mir": 4093, "pestilen": 4094, "fisting</w>": 4095, "combine": 4096, "thorou": 4097, "fasts</w>": 4098, "e.</w>": 4099, "coo": 4100, "aster</w>": 4101, "muni": 4102, "alone.</w>": 4103, "hall": 4104, "isonous</w>": 4105, "--": 4106, "win:</w>": 4107, "kine</w>": 4108, "alla": 4109, "una": 4110, "finish": 4111, "track</w>": 4112, "vil</w>": 4113, "re,</w>": 4114, "Thir": 4115, "child?</w>": 4116, "Besee": 4117, "ads</w>": 4118, "beam</w>": 4119, "palates</w>": 4120, "ight,</w>": 4121, "bing": 4122, "late,</w>": 4123, "wit!</w>": 4124, "oler": 4125, "puritan</w>": 4126, "packing,</w>": 4127, "bari": 4128, "lost,</w>": 4129, "fire": 4130, "uncon": 4131, "AND:</w>": 4132, "ish</w>": 4133, "roying</w>": 4134, "whil": 4135, "mp": 4136, "galle": 4137, "Whereto</w>": 4138, "brats</w>": 4139, "mates</w>": 4140, "mpeach</w>": 4141, "cat,</w>": 4142, "fun</w>": 4143, "ju": 4144, "sit.</w>": 4145, "comes;</w>": 4146, "bad": 4147, "aloof": 4148, "merit.</w>": 4149, "prosper</w>": 4150, "mpus</w>": 4151, "generous</w>": 4152, "visited</w>": 4153, "awa": 4154, "islan": 4155, "pper": 4156, "solati": 4157, "gile</w>": 4158, "stealing</w>": 4159, "she's</w>": 4160, "vent,</w>": 4161, "breathes,</w>": 4162, "mined</w>": 4163, "ad.</w>": 4164, "ppearing</w>": 4165, "bead": 4166, "dram</w>": 4167, "is": 4168, "dere": 4169, "villany</w>": 4170, "mbracing,</w>": 4171, "rates,</w>": 4172, "Warwick</w>": 4173, "gar": 4174, "reater</w>": 4175, "boun": 4176, "spritely,</w>": 4177, "ature,</w>": 4178, "Peer": 4179, "misu": 4180, "money?</w>": 4181, "Hacke": 4182, "saries</w>": 4183, "oor</w>": 4184, "terest</w>": 4185, "thes!</w>": 4186, "leading</w>": 4187, "mbold</w>": 4188, "minority</w>": 4189, "solent,</w>": 4190, "beat!</w>": 4191, "Loo": 4192, "child-": 4193, "meanest</w>": 4194, "urope</w>": 4195, ".</w>": 4196, "mad:</w>": 4197, "Rights</w>": 4198, "peril": 4199, "venom'd</w>": 4200, "well.</w>": 4201, "meats</w>": 4202, "mis,</w>": 4203, "do't.</w>": 4204, "prisoner</w>": 4205, "olent</w>": 4206, "valu": 4207, "sharing</w>": 4208, "vourab": 4209, "abu": 4210, "bunes.</w>": 4211, "boli": 4212, "tise</w>": 4213, "fallen</w>": 4214, "labour</w>": 4215, "coru": 4216, "sador": 4217, "ne,</w>": 4218, "called</w>": 4219, "ry</w>": 4220, "verily.</w>": 4221, "Thus</w>": 4222, ";": 4223, "them,</w>": 4224, "ppellan": 4225, "honourable</w>": 4226, "tin": 4227, "art</w>": 4228, "Prosper</w>": 4229, "rolled</w>": 4230, "Read</w>": 4231, "la": 4232, "prevention</w>": 4233, "rather": 4234, "sury,</w>": 4235, "nighthood</w>": 4236, "means</w>": 4237, "fester": 4238, "be</w>": 4239, "pal": 4240, "dominan": 4241, "pile": 4242, "hen.</w>": 4243, "z": 4244, "rarer": 4245, "stories</w>": 4246, "nightly</w>": 4247, "ability</w>": 4248, "such</w>": 4249, "comes,</w>": 4250, "oran": 4251, "cheering</w>": 4252, "ease.</w>": 4253, "ale.</w>": 4254, "gainst</w>": 4255, "More</w>": 4256, "daring</w>": 4257, "mall</w>": 4258, "durate,</w>": 4259, "ory,</w>": 4260, "generati": 4261, "were,</w>": 4262, "promised</w>": 4263, "generosit": 4264, "gean": 4265, "itu": 4266, "mour": 4267, "nal</w>": 4268, "hold</w>": 4269, "colouring": 4270, "gad": 4271, "wore</w>": 4272, "dared</w>": 4273, "uthor</w>": 4274, "revi": 4275, "BA": 4276, "morous.</w>": 4277, "rets</w>": 4278, "utes?</w>": 4279, "stopp": 4280, "ispar": 4281, "speake": 4282, "funeral</w>": 4283, "omini": 4284, "bold</w>": 4285, "spirits,</w>": 4286, "saries,</w>": 4287, "wisp</w>": 4288, "rash</w>": 4289, "none</w>": 4290, "woon</w>": 4291, "youth.</w>": 4292, "ombar": 4293, "promo": 4294, "sex": 4295, "ad-": 4296, "Will</w>": 4297, "gentler": 4298, "buri": 4299, "act</w>": 4300, "pillow</w>": 4301, "priest": 4302, "hoop</w>": 4303, "tor</w>": 4304, "may,</w>": 4305, "facer</w>": 4306, "than,</w>": 4307, "rutish,</w>": 4308, "menting</w>": 4309, "pita": 4310, "peace;</w>": 4311, "other": 4312, "ben</w>": 4313, "he</w>": 4314, "arer": 4315, "gor": 4316, "ton</w>": 4317, "gates,</w>": 4318, "kis": 4319, "mirac": 4320, "inold</w>": 4321, "He</w>": 4322, "sor</w>": 4323, "stout": 4324, "ley's</w>": 4325, "though</w>": 4326, "isu": 4327, "dun": 4328, "feri": 4329, "wering</w>": 4330, "punished</w>": 4331, "punishes</w>": 4332, "rents</w>": 4333, "'Tis</w>": 4334, "wo</w>": 4335, "IUS:</w>": 4336, "Pe": 4337, "Dori": 4338, "dinand</w>": 4339, "tally.</w>": 4340, "POMP": 4341, "stow": 4342, "stery</w>": 4343, "tle</w>": 4344, "Mon": 4345, "prison": 4346, "best!</w>": 4347, "tiger": 4348, "teres": 4349, "omans,</w>": 4350, "rash,</w>": 4351, "know,</w>": 4352, "atharina": 4353, "Whenever</w>": 4354, "own</w>": 4355, "What!</w>": 4356, "mbas": 4357, "turer": 4358, "palace.</w>": 4359, "iron.</w>": 4360, "A": 4361, "rite": 4362, "eral": 4363, "jolly</w>": 4364, "therefore</w>": 4365, "king": 4366, "cary,</w>": 4367, "loves.</w>": 4368, "lasp": 4369, "madest</w>": 4370, "sal</w>": 4371, "prolon": 4372, "chool</w>": 4373, "wood</w>": 4374, "unin": 4375, "morality</w>": 4376, "Castle</w>": 4377, "durate</w>": 4378, "patent</w>": 4379, "ad;</w>": 4380, "terit": 4381, "happily,</w>": 4382, "Le": 4383, "nats</w>": 4384, "spani": 4385, "oning": 4386, "opi": 4387, "promise,</w>": 4388, "spirac": 4389, "pposing</w>": 4390, "male</w>": 4391, "noo": 4392, "ered</w>": 4393, "twas,</w>": 4394, "shor": 4395, "anish": 4396, "pres": 4397, "visit,</w>": 4398, "rease</w>": 4399, "him,</w>": 4400, "direst</w>": 4401, "my</w>": 4402, "been.</w>": 4403, "hated</w>": 4404, "res,</w>": 4405, "chafe": 4406, "stra</w>": 4407, "westwar": 4408, "thus:</w>": 4409, "l</w>": 4410, "ites</w>": 4411, "hit</w>": 4412, "verer": 4413, "steries</w>": 4414, "eather</w>": 4415, "grati": 4416, "grie": 4417, "minister,</w>": 4418, "pace:</w>": 4419, "mination</w>": 4420, "dam</w>": 4421, "whispering": 4422, "QUEEN</w>": 4423, "mpeach": 4424, "an,</w>": 4425, "nees,</w>": 4426, "hoof": 4427, "Where</w>": 4428, "death": 4429, "tiness</w>": 4430, "es": 4431, "si": 4432, "wheel": 4433, "gest,</w>": 4434, "cond</w>": 4435, "leness</w>": 4436, "mester,</w>": 4437, "dines": 4438, "bevera": 4439, "ten.</w>": 4440, "EY:</w>": 4441, "olets</w>": 4442, "Do't</w>": 4443, "men": 4444, "bol": 4445, "aliti": 4446, "too.</w>": 4447, "uty</w>": 4448, "stable</w>": 4449, "sire</w>": 4450, "misuse</w>": 4451, "vory</w>": 4452, "kish,</w>": 4453, "vered</w>": 4454, "peereth</w>": 4455, "babe</w>": 4456, "master</w>": 4457, "counter,</w>": 4458, "surest</w>": 4459, "See</w>": 4460, "gold</w>": 4461, "priest:</w>": 4462, "coffins</w>": 4463, "leaf": 4464, "S</w>": 4465, "colour": 4466, "leen</w>": 4467, "eat;</w>": 4468, "readiness</w>": 4469, "offen": 4470, "mpri": 4471, "whel": 4472, "was": 4473, "let</w>": 4474, "'ll</w>": 4475, "enter</w>": 4476, "shell</w>": 4477, "siti": 4478, "ritories:</w>": 4479, "spread</w>": 4480, "pprenti": 4481, "ately</w>": 4482, "upid</w>": 4483, "Our</w>": 4484, "believe</w>": 4485, "entra": 4486, "ker": 4487, "ome:</w>": 4488, "nightingale,</w>": 4489, "restored</w>": 4490, "fell</w>": 4491, "full</w>": 4492, "tere": 4493, "promise": 4494, "I'll</w>": 4495, "father's</w>": 4496, "places;</w>": 4497, "laste": 4498, "chafed</w>": 4499, "caring</w>": 4500, "What's</w>": 4501, "hire": 4502, "acknow": 4503, "fasten</w>": 4504, "ce": 4505, "ive</w>": 4506, "kings</w>": 4507, "fish</w>": 4508, "strut</w>": 4509, "tool": 4510, "pi": 4511, "nous,</w>": 4512, "zen</w>": 4513, "Suppose</w>": 4514, "mpure</w>": 4515, "ispute</w>": 4516, "geese,</w>": 4517, "bull": 4518, "To</w>": 4519, "more,</w>": 4520, "spirit.</w>": 4521, "lade</w>": 4522, "compare</w>": 4523, "mbraces,</w>": 4524, "linable</w>": 4525, "back,</w>": 4526, "abet</w>": 4527, "vanish": 4528, "feats,</w>": 4529, "mpest</w>": 4530, "reshol": 4531, "mill": 4532, "sprit,</w>": 4533, "wea": 4534, "lof": 4535, "hinged</w>": 4536, "youth": 4537, "stract</w>": 4538, "shore</w>": 4539, "ret.</w>": 4540, "supposest</w>": 4541, "Sab": 4542, "dener": 4543, "hereti": 4544, "bir": 4545, "rus</w>": 4546, "collar": 4547, "lay,</w>": 4548, "dwar": 4549, "erona</w>": 4550, "alack,</w>": 4551, "Car": 4552, "Profane": 4553, "m,</w>": 4554, "pe</w>": 4555, "ighti": 4556, "plate</w>": 4557, "facit</w>": 4558, "ene": 4559, "last,</w>": 4560, "sen": 4561, "rig": 4562, "ments,</w>": 4563, "ll</w>": 4564, "events</w>": 4565, "any</w>": 4566, "test,</w>": 4567, "shel": 4568, "rive</w>": 4569, "babes;</w>": 4570, "clan": 4571, "sistan": 4572, "night?</w>": 4573, "ales,</w>": 4574, "tear": 4575, "themes</w>": 4576, "brace</w>": 4577, "you": 4578, "basti": 4579, "care.</w>": 4580, "nes": 4581, "bile</w>": 4582, "ury</w>": 4583, "posterou": 4584, "tongue</w>": 4585, "that,</w>": 4586, "Hal": 4587, "choo": 4588, "bell": 4589, "promising</w>": 4590, "des,</w>": 4591, "lights</w>": 4592, "pupil</w>": 4593, "rat,</w>": 4594, "out</w>": 4595, "mallow": 4596, "career</w>": 4597, "hist!</w>": 4598, "statu": 4599, "rise,</w>": 4600, "hastings</w>": 4601, "sees</w>": 4602, "volous</w>": 4603, "breach,</w>": 4604, "monar": 4605, "remes.</w>": 4606, "closed</w>": 4607, "sen,</w>": 4608, "teach</w>": 4609, "shade": 4610, "soft</w>": 4611, "est;</w>": 4612, "we": 4613, "lade": 4614, "lean</w>": 4615, "they:</w>": 4616, "her": 4617, "vere": 4618, "nigh</w>": 4619, "waspish,</w>": 4620, "power</w>": 4621, "lister</w>": 4622, "t</w>": 4623, "ks,</w>": 4624, "shear</w>": 4625, "o'</w>": 4626, "spirit?</w>": 4627, "tale,</w>": 4628, "shearing,</w>": 4629, "owar": 4630, "hope</w>": 4631, "pal</w>": 4632, "rights</w>": 4633, "fact</w>": 4634, "ad</w>": 4635, "then,</w>": 4636, "renew</w>": 4637, "opar": 4638, "mates?</w>": 4639, "monachu": 4640, "lace;</w>": 4641, "el</w>": 4642, "roses</w>": 4643, "belike</w>": 4644, "pillory,</w>": 4645, "ONE:</w>": 4646, "bons</w>": 4647, "ditati": 4648, "Dolour</w>": 4649, "calling</w>": 4650, "asi": 4651, "pirits</w>": 4652, "fighting</w>": 4653, "Done.</w>": 4654, "rops</w>": 4655, "towar": 4656, "unto</w>": 4657, "we,</w>": 4658, "sa": 4659, "tallow": 4660, "vates!</w>": 4661, "below": 4662, "GON": 4663, "lent;</w>": 4664, "ister</w>": 4665, "ven</w>": 4666, "dela": 4667, "mpi": 4668, "law</w>": 4669, "so,</w>": 4670, "f,</w>": 4671, "riting": 4672, "spray</w>": 4673, "un</w>": 4674, "gour</w>": 4675, "Bestri": 4676, "nees</w>": 4677, "seat's</w>": 4678, "till": 4679, "ch'd</w>": 4680, "habit.</w>": 4681, "be.</w>": 4682, "abuse</w>": 4683, "space</w>": 4684, "stop,</w>": 4685, "sist</w>": 4686, "tenor</w>": 4687, "l": 4688, "mana": 4689, "nity</w>": 4690, "diles</w>": 4691, "clai": 4692, "get</w>": 4693, "whiles;</w>": 4694, "domesti": 4695, "felon": 4696, "dear": 4697, "grate</w>": 4698, "ean,</w>": 4699, "graci": 4700, "spouse</w>": 4701, "mightiness</w>": 4702, "for</w>": 4703, "mise,</w>": 4704, "string,</w>": 4705, "reshold</w>": 4706, "ving</w>": 4707, "stout</w>": 4708, "doub": 4709, "esus</w>": 4710, "eve": 4711, "hal": 4712, "peevish": 4713, "fight!</w>": 4714, "spade</w>": 4715, "Thou": 4716, "shell": 4717, "Bes": 4718, "ckings</w>": 4719, "season.</w>": 4720, "lits</w>": 4721, "paring</w>": 4722, "meat:</w>": 4723, "ent": 4724, "heral": 4725, "sig": 4726, "hine</w>": 4727, "es.</w>": 4728, "reature,</w>": 4729, "fines:</w>": 4730, "pire</w>": 4731, "cute,</w>": 4732, "rites,</w>": 4733, "O:</w>": 4734, "alaru": 4735, "light:</w>": 4736, "that!</w>": 4737, "beli": 4738, "pilo": 4739, "shop</w>": 4740, "store</w>": 4741, "chest": 4742, "arit": 4743, "casting</w>": 4744, "gate.</w>": 4745, "ollan": 4746, "Lea": 4747, "evasi": 4748, "ban": 4749, "cing,</w>": 4750, "Beloved</w>": 4751, "who.</w>": 4752, "mast,</w>": 4753, "tastes;</w>": 4754, "don</w>": 4755, "here": 4756, "washing</w>": 4757, "Sun": 4758, "clad</w>": 4759, "wife</w>": 4760, "proof</w>": 4761, "olent.</w>": 4762, "chere": 4763, "iries'</w>": 4764, "ompey?</w>": 4765, "rolling</w>": 4766, "Boo": 4767, "tunate": 4768, "grasp": 4769, "Safely</w>": 4770, "mit?</w>": 4771, "happi": 4772, "Ri": 4773, "hither": 4774, "fa": 4775, "bati": 4776, "wither": 4777, "senator": 4778, "severing</w>": 4779, "come:</w>": 4780, "wisely,</w>": 4781, "while": 4782, "pithy</w>": 4783, "shoo": 4784, "ge.</w>": 4785, "ho,</w>": 4786, "?</w>": 4787, "gher</w>": 4788, "roop": 4789, "parallel": 4790, "coner": 4791, "past,</w>": 4792, "ron": 4793, "lishe": 4794, "pest.</w>": 4795, "pirate,</w>": 4796, "rop</w>": 4797, "sup</w>": 4798, "vent": 4799, "eased</w>": 4800, "back": 4801, "ower</w>": 4802, "mil": 4803, "ti": 4804, "fu": 4805, "ston,</w>": 4806, "gin,</w>": 4807, "su": 4808, "bray,</w>": 4809, "tunes.</w>": 4810, "se": 4811, "tinent.</w>": 4812, "past;</w>": 4813, "faul": 4814, "'Thus,</w>": 4815, "DUCH": 4816, "des</w>": 4817, "bration</w>": 4818, "nati": 4819, "yea": 4820, "aded</w>": 4821, "nearer</w>": 4822, "home?</w>": 4823, "rigorous</w>": 4824, "tel": 4825, "dealing": 4826, "riel</w>": 4827, "pout": 4828, "ith</w>": 4829, "stitute": 4830, "bare": 4831, "lady</w>": 4832, "lure.</w>": 4833, "alligator</w>": 4834, "honorato</w>": 4835, "wee": 4836, "habit</w>": 4837, "ghts,</w>": 4838, "gallan": 4839, "gelo's</w>": 4840, "istru": 4841, "ithal</w>": 4842, "mel": 4843, "stood</w>": 4844, "Master</w>": 4845, "vent.</w>": 4846, "bour</w>": 4847, "ope</w>": 4848, "entering": 4849, "quites</w>": 4850, "dishes,</w>": 4851, "lint</w>": 4852, "face.</w>": 4853, "Sige": 4854, "vate.</w>": 4855, "mping</w>": 4856, "gher,</w>": 4857, "estab": 4858, "rol": 4859, "Prosperity</w>": 4860, "olla": 4861, "wisest;</w>": 4862, "Eneas'</w>": 4863, "o</w>": 4864, "thes</w>": 4865, "uneven</w>": 4866, "Here,</w>": 4867, "morous,</w>": 4868, "o": 4869, "revo": 4870, "erely</w>": 4871, "pomp</w>": 4872, "do</w>": 4873, "eno": 4874, "mire": 4875, "ounce.</w>": 4876, "tous</w>": 4877, "vironed</w>": 4878, "tire</w>": 4879, "coloure": 4880, "ta</w>": 4881, "voury</w>": 4882, "mistres": 4883, "pe": 4884, "beat</w>": 4885, "pronounce</w>": 4886, "open,</w>": 4887, "sellor</w>": 4888, "vering</w>": 4889, "cellent,</w>": 4890, "rather,</w>": 4891, "bro": 4892, "mates!</w>": 4893, "trari": 4894, "Murderer:</w>": 4895, "that": 4896, "fees</w>": 4897, "ropp": 4898, "dasher": 4899, "momentary</w>": 4900, "rise</w>": 4901, "canst;</w>": 4902, "ten</w>": 4903, "twa": 4904, "te": 4905, "mper": 4906, "jest,</w>": 4907, "gore": 4908, "pulet;</w>": 4909, "'This</w>": 4910, "Tybal": 4911, "volup": 4912, "pleaser": 4913, "trine,</w>": 4914, "So</w>": 4915, "comest,</w>": 4916, "d;</w>": 4917, "help</w>": 4918, "runa": 4919, "opposer": 4920, "stool": 4921, "ransparent</w>": 4922, "priest,</w>": 4923, "peruse</w>": 4924, "gates:</w>": 4925, "ack</w>": 4926, "pitulate</w>": 4927, "sinews</w>": 4928, "fared</w>": 4929, "dates</w>": 4930, "ated</w>": 4931, "fe": 4932, "gentle": 4933, "tasti": 4934, "shady</w>": 4935, "ceit,</w>": 4936, "itus,</w>": 4937, "run,</w>": 4938, "pplause</w>": 4939, "eli": 4940, "ull": 4941, "belon": 4942, "senate": 4943, "pitation</w>": 4944, "path": 4945, "quisite,</w>": 4946, "utus</w>": 4947, "respite": 4948, "let;</w>": 4949, "ent:</w>": 4950, "ci": 4951, "priest;</w>": 4952, "mperature": 4953, "daughter,</w>": 4954, "ollowing</w>": 4955, "void</w>": 4956, "seats</w>": 4957, "enor": 4958, "wow": 4959, "Mali": 4960, "weal</w>": 4961, "Another": 4962, "castawa": 4963, "unco": 4964, "mp</w>": 4965, "entering</w>": 4966, "penan": 4967, "wart</w>": 4968, "chur": 4969, "Profes": 4970, "ferent.</w>": 4971, "Right</w>": 4972, "ase</w>": 4973, "mali": 4974, "Are</w>": 4975, "ding": 4976, "rone</w>": 4977, "operation</w>": 4978, "look</w>": 4979, "toni": 4980, "closure</w>": 4981, "mperor</w>": 4982, "'d</w>": 4983, "reating</w>": 4984, "som,</w>": 4985, "outwar": 4986, "ests</w>": 4987, "away</w>": 4988, "de,</w>": 4989, "fear": 4990, "money;</w>": 4991, "stings</w>": 4992, "rise:</w>": 4993, "mposter": 4994, "ment,</w>": 4995, "voury,</w>": 4996, "TRANIO:</w>": 4997, "garish</w>": 4998, "rest?</w>": 4999, "ope": 5000, "KATHARINA:</w>": 5001, "had</w>": 5002, "rement</w>": 5003, "GLOUCESTER:</w>": 5004, "mirable</w>": 5005, "thither</w>": 5006, "dite</w>": 5007, "places</w>": 5008, "nature,</w>": 5009, "ritories,</w>": 5010, "Clif": 5011, "history</w>": 5012, "tut,</w>": 5013, "ating</w>": 5014, "cut;</w>": 5015, "breast</w>": 5016, "cular": 5017, "about.</w>": 5018, "chase,</w>": 5019, "mory,</w>": 5020, "basin</w>": 5021, "d-": 5022, "dowi": 5023, "This,</w>": 5024, "ado,</w>": 5025, "hou": 5026, "lenity</w>": 5027, "char": 5028, "waded</w>": 5029, "resor": 5030, "kes</w>": 5031, "spran": 5032, "belly,</w>": 5033, "cealing</w>": 5034, "sisting</w>": 5035, "Resi": 5036, "trier</w>": 5037, "reasonable</w>": 5038, "father,</w>": 5039, "manel": 5040, "cow": 5041, "digi": 5042, "follower": 5043, "utenan": 5044, "vise": 5045, "wisest</w>": 5046, "vention</w>": 5047, "test;</w>": 5048, "eaten:</w>": 5049, "turn</w>": 5050, "home:</w>": 5051, "cul": 5052, "rariti": 5053, "canon,</w>": 5054, "keley?</w>": 5055, "fare,</w>": 5056, "supp": 5057, "Ca": 5058, "delu": 5059, "ole</w>": 5060, "show</w>": 5061, "reati": 5062, "thigh</w>": 5063, "went.</w>": 5064, "kindly</w>": 5065, "solely.</w>": 5066, "leave</w>": 5067, "Gentle</w>": 5068, "gratulate.</w>": 5069, "cest,</w>": 5070, "hereaf": 5071, "mes;</w>": 5072, "rer": 5073, "so</w>": 5074, "das": 5075, "spent;</w>": 5076, "mens</w>": 5077, "tow": 5078, "grievan": 5079, "Why,</w>": 5080, "rutus,</w>": 5081, "fast</w>": 5082, "stomach": 5083, "ashore": 5084, "acent</w>": 5085, "lourish": 5086, "vens</w>": 5087, "hull,</w>": 5088, "kest,</w>": 5089, "rease": 5090, "sary,</w>": 5091, "general</w>": 5092, "release</w>": 5093, "lanes,</w>": 5094, "sist.</w>": 5095, "gate</w>": 5096, "espising,</w>": 5097, "Reason</w>": 5098, "lowed</w>": 5099, "child</w>": 5100, "heat,</w>": 5101, "loo": 5102, "iting": 5103, "reading": 5104, "ghing": 5105, "CORIOLAN": 5106, "vellous</w>": 5107, "posts</w>": 5108, "EL:</w>": 5109, "unawares</w>": 5110, "ras</w>": 5111, "rigour</w>": 5112, "risti": 5113, "ses:</w>": 5114, "ginger": 5115, "d,</w>": 5116, "what</w>": 5117, "feast;</w>": 5118, "pronounce,</w>": 5119, "senten": 5120, "eser": 5121, "er</w>": 5122, "ades.</w>": 5123, "POLIXENES:</w>": 5124, "cope,</w>": 5125, "stitute,</w>": 5126, "rons</w>": 5127, "mat": 5128, "hearing</w>": 5129, "tural</w>": 5130, "night.</w>": 5131, "soli": 5132, "mented</w>": 5133, "beach</w>": 5134, "pas": 5135, "deno": 5136, "deserving</w>": 5137, "bread</w>": 5138, "cease:</w>": 5139, "mate": 5140, "fight.</w>": 5141, "pping</w>": 5142, "fright": 5143, "fill</w>": 5144, "derately</w>": 5145, "telling</w>": 5146, "ball": 5147, "chopping</w>": 5148, "happen": 5149, "o'": 5150, "showed</w>": 5151, "Now</w>": 5152, "no": 5153, "easily</w>": 5154, "pro": 5155, "T": 5156, "abi": 5157, "mini": 5158, "meaning": 5159, "f</w>": 5160, "eves,</w>": 5161, "K:</w>": 5162, "combine</w>": 5163, "stile</w>": 5164, "tall</w>": 5165, "GRE": 5166, "Renow": 5167, "curity</w>": 5168, "wer</w>": 5169, "rings</w>": 5170, "darest,</w>": 5171, "mpute</w>": 5172, "dally</w>": 5173, "tenor": 5174, "testable</w>": 5175, "band</w>": 5176, "wing,</w>": 5177, "Haste</w>": 5178, "mbrace": 5179, "rest;</w>": 5180, "wive</w>": 5181, "rural</w>": 5182, "gale</w>": 5183, "vaniti": 5184, "plead</w>": 5185, "Whereto,</w>": 5186, "money,</w>": 5187, "eld</w>": 5188, "gelo</w>": 5189, "alar": 5190, "hope.</w>": 5191, "shan": 5192, "late": 5193, "don:</w>": 5194, "twenty</w>": 5195, "ared</w>": 5196, "Mar": 5197, "sinew</w>": 5198, "at,</w>": 5199, "mon,</w>": 5200, "ling": 5201, "bear</w>": 5202, "mpa": 5203, "warran": 5204, "sed</w>": 5205, "nes</w>": 5206, "gins</w>": 5207, "yes;</w>": 5208, "relent.</w>": 5209, "cho": 5210, "purposes;</w>": 5211, "despised</w>": 5212, "outh</w>": 5213, "cala": 5214, "n,</w>": 5215, "cuse</w>": 5216, "hopeless</w>": 5217, "lose,</w>": 5218, "soming</w>": 5219, "are.</w>": 5220, "Whither,</w>": 5221, "Hallow": 5222, "sea</w>": 5223, "proof,</w>": 5224, "sof": 5225, "reme</w>": 5226, "ans": 5227, "safe</w>": 5228, "verit": 5229, "ent,</w>": 5230, "lesh": 5231, "happen</w>": 5232, "jor</w>": 5233, "reet</w>": 5234, "do'</w>": 5235, "olet</w>": 5236, "uthorit": 5237, "not.</w>": 5238, "go'": 5239, "row": 5240, "cutor": 5241, "geal": 5242, "gentler</w>": 5243, "lies,</w>": 5244, "paced</w>": 5245, "dab": 5246, "les?</w>": 5247, "Unar": 5248, "They</w>": 5249, "saline,</w>": 5250, "stand</w>": 5251, "holi": 5252, "reland,</w>": 5253, "sword</w>": 5254, "Warwi": 5255, "MI": 5256, "sines": 5257, "up</w>": 5258, "keley.</w>": 5259, "your</w>": 5260, "too,</w>": 5261, "ril": 5262, "nine": 5263, "his,</w>": 5264, "cupation</w>": 5265, "mentati": 5266, "mur": 5267, "devour</w>": 5268, "grace.</w>": 5269, "were.</w>": 5270, "ditating</w>": 5271, "my's</w>": 5272, "besi": 5273, "ingeni": 5274, "head!</w>": 5275, "thereabout": 5276, "tisans,</w>": 5277, "nel": 5278, "mouse</w>": 5279, "prise": 5280, "folly,</w>": 5281, "bearan": 5282, "thes;</w>": 5283, "plane": 5284, "HASTINGS:</w>": 5285, "risto": 5286, "reat,</w>": 5287, "y": 5288, "fine</w>": 5289, "hast.</w>": 5290, "ces?</w>": 5291, "st?</w>": 5292, "list:</w>": 5293, "calen": 5294, "Dun": 5295, "bishop</w>": 5296, "de": 5297, "cuted</w>": 5298, "relish": 5299, "ge</w>": 5300, "Hen": 5301, "maining</w>": 5302, "merely</w>": 5303, "mer": 5304, "each</w>": 5305, "mad</w>": 5306, "presu": 5307, "sheer": 5308, "very,</w>": 5309, "gabon": 5310, "sin.</w>": 5311, "con": 5312, "louring</w>": 5313, "estates": 5314, "ite</w>": 5315, "trive</w>": 5316, "ballads</w>": 5317, "lourishing</w>": 5318, "speaking</w>": 5319, "trul": 5320, "ell": 5321, "compell": 5322, "thing</w>": 5323, "charitable</w>": 5324, "send</w>": 5325, "hin</w>": 5326, "truth</w>": 5327, "d": 5328, "share</w>": 5329, "wistly</w>": 5330, "sons</w>": 5331, "gather": 5332, "falling</w>": 5333, "ves": 5334, "joy</w>": 5335, "zen": 5336, "t;</w>": 5337, "saries!</w>": 5338, "sear": 5339, "lieve</w>": 5340, "sent.</w>": 5341, "pil": 5342, "feren": 5343, "ested</w>": 5344, "bee": 5345, "fall": 5346, "ball</w>": 5347, "sees,</w>": 5348, "event</w>": 5349, "retur": 5350, "ING": 5351, "profane": 5352, "finite.</w>": 5353, "singing": 5354, "noon,</w>": 5355, "lear": 5356, "Ay,</w>": 5357, "theat": 5358, "sullen</w>": 5359, "AB": 5360, "whispering</w>": 5361, "gans,</w>": 5362, "uts,</w>": 5363, "ppeal": 5364, "B": 5365, "ring</w>": 5366, "faced</w>": 5367, "les:</w>": 5368, "read;</w>": 5369, "iser": 5370, "ring,</w>": 5371, "prised</w>": 5372, "mprese,</w>": 5373, "pale": 5374, "shing</w>": 5375, "LIS": 5376, "cate,</w>": 5377, "sati": 5378, "devout</w>": 5379, "ather": 5380, "sullens</w>": 5381, "Thy</w>": 5382, "lad": 5383, "jest.</w>": 5384, "lowered</w>": 5385, "ban:</w>": 5386, "casu": 5387, "rone": 5388, "eru": 5389, "seen:</w>": 5390, "bill</w>": 5391, "evi": 5392, "esp": 5393, "Thee</w>": 5394, "basest,</w>": 5395, "J": 5396, "risen:</w>": 5397, "stones?</w>": 5398, "Mur": 5399, "enter": 5400, "latest</w>": 5401, "dolour": 5402, "his.</w>": 5403, "bats</w>": 5404, "teries</w>": 5405, "not</w>": 5406, "wat": 5407, "dise.</w>": 5408, "E": 5409, "esires</w>": 5410, "spiritu": 5411, "e": 5412, "prat": 5413, "lor": 5414, "keley,</w>": 5415, "ge": 5416, "dead!</w>": 5417, "wise": 5418, "peri": 5419, "jests</w>": 5420, "derer:</w>": 5421, "sallow</w>": 5422, "shes,</w>": 5423, "HORTENS": 5424, "ba": 5425, "these": 5426, "ree</w>": 5427, "thus;</w>": 5428, "stale,</w>": 5429, "death,</w>": 5430, "bow": 5431, "while</w>": 5432, "ppeareth</w>": 5433, "Mada": 5434, "clow": 5435, "ppease</w>": 5436, "sen'd</w>": 5437, "thening</w>": 5438, "vex": 5439, "uno": 5440, "penitent.</w>": 5441, "deratel": 5442, "solutely</w>": 5443, "satin,</w>": 5444, "pine,</w>": 5445, "onable</w>": 5446, "dullest</w>": 5447, "disposed</w>": 5448, "Seer</w>": 5449, "ades</w>": 5450, "bane,</w>": 5451, "None,</w>": 5452, "tator": 5453, "com": 5454, "whole,</w>": 5455, "mean:</w>": 5456, "cise": 5457, "veyed</w>": 5458, "prone</w>": 5459, "after</w>": 5460, "een.</w>": 5461, "in</w>": 5462, "Rome,</w>": 5463, "fil</w>": 5464, "sir,</w>": 5465, "An</w>": 5466, "monal": 5467, "MAR": 5468, "pher,</w>": 5469, "panish</w>": 5470, "vowel</w>": 5471, "fingering,</w>": 5472, "cher,</w>": 5473, "casi": 5474, "ney's</w>": 5475, "gill": 5476, "slan": 5477, "reate</w>": 5478, "outrun": 5479, "severest</w>": 5480, "isoner</w>": 5481, "singer": 5482, "prating": 5483, "th</w>": 5484, "counte": 5485, "devise": 5486, "ey": 5487, "grace</w>": 5488, "thin</w>": 5489, "rill": 5490, "post;</w>": 5491, "ality</w>": 5492, "even:</w>": 5493, "honey,</w>": 5494, "mbowell": 5495, "diseases</w>": 5496, "neel": 5497, "s</w>": 5498, "chin</w>": 5499, "pile</w>": 5500, "doom": 5501, "iles</w>": 5502, "might.</w>": 5503, "pollo": 5504, "bute": 5505, "chim": 5506, "cely</w>": 5507, "What</w>": 5508, "coul": 5509, "enes;</w>": 5510, "Machi": 5511, "meas": 5512, "sad": 5513, "But,</w>": 5514, "rates'</w>": 5515, "ber</w>": 5516, "i": 5517, "ly,</w>": 5518, "gates</w>": 5519, "pratest;</w>": 5520, "garet!</w>": 5521, "Haber": 5522, "best,</w>": 5523, "'Than": 5524, "souther": 5525, "tene": 5526, "stor": 5527, "transpor": 5528, "hand,</w>": 5529, "pull</w>": 5530, "tillery</w>": 5531, "thi": 5532, "ily,</w>": 5533, "fired</w>": 5534, "allay</w>": 5535, "banishe": 5536, "mouth.</w>": 5537, "y!</w>": 5538, "mplate": 5539, "self,</w>": 5540, "And,</w>": 5541, "grand</w>": 5542, "ges": 5543, "prosperity</w>": 5544, "eve</w>": 5545, "foolery,</w>": 5546, ";</w>": 5547, "desolati": 5548, "ent</w>": 5549, "niti": 5550, "banisher": 5551, "omer": 5552, "only</w>": 5553, "lasted</w>": 5554, "Bon": 5555, "Boling": 5556, "bate": 5557, "milit": 5558, "rent,</w>": 5559, "forena": 5560, "With</w>": 5561, "Call</w>": 5562, "prieves</w>": 5563, "iting</w>": 5564, "bone</w>": 5565, "must</w>": 5566, "grace:</w>": 5567, "stom'd</w>": 5568, "utu": 5569, "read--</w>": 5570, "olentest</w>": 5571, "weless</w>": 5572, "servitor": 5573, "opper": 5574, "veriest</w>": 5575, "closeness</w>": 5576, "live</w>": 5577, "distilled</w>": 5578, "chisel</w>": 5579, "answer</w>": 5580, "mished</w>": 5581, "ulina": 5582, "dily.</w>": 5583, "event.</w>": 5584, "cene.</w>": 5585, "ol": 5586, "head;</w>": 5587, "rier</w>": 5588, "noon": 5589, "raf": 5590, "ves:</w>": 5591, "ister,</w>": 5592, "ries:</w>": 5593, "volu": 5594, "m'd</w>": 5595, "lose.</w>": 5596, "omano,</w>": 5597, "desperate": 5598, "nal": 5599, "hath</w>": 5600, "file</w>": 5601, "wallow</w>": 5602, "minister": 5603, "asunder": 5604, "male.</w>": 5605, "seas</w>": 5606, "mines</w>": 5607, "desirer": 5608, "upiter</w>": 5609, "my:</w>": 5610, "Ma": 5611, "des;</w>": 5612, "withal": 5613, "sovereig": 5614, "meaning,</w>": 5615, "sits,</w>": 5616, "wiselier</w>": 5617, "Anon,</w>": 5618, "hore": 5619, "sole</w>": 5620, "Whil": 5621, "man": 5622, "nish": 5623, "ght,</w>": 5624, "so": 5625, "cheat.</w>": 5626, "I</w>": 5627, "pplau": 5628, "stead,</w>": 5629, "tradu": 5630, "child:</w>": 5631, "asion</w>": 5632, "twig</w>": 5633, "rare</w>": 5634, "car</w>": 5635, "sented</w>": 5636, "cora": 5637, "ist,</w>": 5638, "dello,</w>": 5639, "sent,</w>": 5640, "gil": 5641, "grace": 5642, "ate</w>": 5643, "veyer": 5644, "sooner": 5645, "sty</w>": 5646, "ilan</w>": 5647, "vour</w>": 5648, "rone.</w>": 5649, "ither": 5650, "ay,</w>": 5651, "love": 5652, "desires</w>": 5653, "ome": 5654, "chapp": 5655, "wished</w>": 5656, "zener": 5657, "ke": 5658, "there,</w>": 5659, "lack'd</w>": 5660, "dut": 5661, "daci": 5662, "with</w>": 5663, "reatest,</w>": 5664, "pash</w>": 5665, "career": 5666, "acor": 5667, "ade": 5668, "n": 5669, "rights,</w>": 5670, "st!</w>": 5671, "outright.</w>": 5672, "es,</w>": 5673, "Fran": 5674, "mirati": 5675, "poll": 5676, "Citizen": 5677, "ream</w>": 5678, "aspiring</w>": 5679, "d--</w>": 5680, "mprison'd</w>": 5681, "shut</w>": 5682, "frighted</w>": 5683, "open": 5684, "omit,</w>": 5685, "mbro": 5686, "stitutes.</w>": 5687, "kes!</w>": 5688, "chase.</w>": 5689, "mili": 5690, "rising</w>": 5691, "fer</w>": 5692, "on": 5693, "seat</w>": 5694, "preter": 5695, "bering</w>": 5696, "ou": 5697, "therea": 5698, "ates,</w>": 5699, "beast;</w>": 5700, "eneni": 5701, "igh": 5702, "follies,</w>": 5703, "ped</w>": 5704, "ying,</w>": 5705, "ome.</w>": 5706, "cell,</w>": 5707, "fow": 5708, "ally.</w>": 5709, "do.</w>": 5710, "Casting</w>": 5711, "bes</w>": 5712, "proper</w>": 5713, "won,</w>": 5714, "miseries</w>": 5715, "Whe": 5716, "veste": 5717, "gistrate": 5718, "company</w>": 5719, "tised</w>": 5720, "thes:</w>": 5721, "me,</w>": 5722, "spi": 5723, "ru": 5724, "mperor": 5725, "par": 5726, "ves;</w>": 5727, "ere,</w>": 5728, "teaching</w>": 5729, "roo": 5730, "ghout</w>": 5731, "as.</w>": 5732, "mar</w>": 5733, "comparable</w>": 5734, "eyes!</w>": 5735, "iler</w>": 5736, "finite</w>": 5737, "shir": 5738, "dishonour</w>": 5739, "istingu": 5740, "IN": 5741, "should</w>": 5742, "reed</w>": 5743, "peles": 5744, "see": 5745, "Sig": 5746, "stead</w>": 5747, "nourish</w>": 5748, "room.</w>": 5749, "daughter": 5750, "out,</w>": 5751, "veller": 5752, "See,</w>": 5753, "Ty": 5754, "relieved</w>": 5755, "holer": 5756, "reaching</w>": 5757, "k'd</w>": 5758, "twas</w>": 5759, "uthoriti": 5760, "tents</w>": 5761, "adul": 5762, "clare</w>": 5763, "dealing,</w>": 5764, "ras": 5765, "south": 5766, "stal</w>": 5767, "gesture": 5768, "prolong</w>": 5769, "nell": 5770, "'Tybal": 5771, "lose</w>": 5772, "reason:</w>": 5773, "oping</w>": 5774, "ves'</w>": 5775, "her,</w>": 5776, "miseries!</w>": 5777, "gerous,</w>": 5778, "fay,</w>": 5779, "mbran": 5780, "mpori": 5781, "beating</w>": 5782, "countering,</w>": 5783, "mid</w>": 5784, "cuting</w>": 5785, "alen</w>": 5786, "another,</w>": 5787, "pratest,</w>": 5788, "vanish</w>": 5789, "LO:</w>": 5790, "pite": 5791, "fec": 5792, "eril": 5793, "ra": 5794, "gent</w>": 5795, "cily</w>": 5796, "saline": 5797, "fili": 5798, "oning</w>": 5799, "et</w>": 5800, "oul": 5801, "mpire,</w>": 5802, "ana</w>": 5803, "rising,</w>": 5804, "mouth": 5805, "heated</w>": 5806, "teen</w>": 5807, "h": 5808, "whiles</w>": 5809, "That,</w>": 5810, "tear</w>": 5811, "ounce": 5812, "gone</w>": 5813, "mack</w>": 5814, "coffin,</w>": 5815, "respon": 5816, "mitate</w>": 5817, "ellow": 5818, "jures</w>": 5819, "too</w>": 5820, "thon,</w>": 5821, "oft</w>": 5822, "dare.</w>": 5823, "posture</w>": 5824, "hore.</w>": 5825, "brate": 5826, "dar": 5827, "yer": 5828, "trades": 5829, "h,</w>": 5830, "lowery</w>": 5831, "uthority</w>": 5832, "Can": 5833, "pane": 5834, "noble</w>": 5835, "mbraces</w>": 5836, "one,</w>": 5837, "rans": 5838, "and</w>": 5839, "prest</w>": 5840, "iller": 5841, "lunac": 5842, "bestow": 5843, "jora": 5844, "mercer": 5845, "lining</w>": 5846, "mpaled</w>": 5847, "sion</w>": 5848, "hans</w>": 5849, "grace;</w>": 5850, "post?</w>": 5851, "measures.</w>": 5852, "ad": 5853, "bid</w>": 5854, "known</w>": 5855, "centuri": 5856, "lute</w>": 5857, "ates!</w>": 5858, "beastly</w>": 5859, "palace</w>": 5860, "cile": 5861, "rost</w>": 5862, "mute": 5863, "ull,</w>": 5864, "eating</w>": 5865, "soldier": 5866, "willing": 5867, "head</w>": 5868, "eyeless</w>": 5869, "hop</w>": 5870, "can:</w>": 5871, "evil</w>": 5872, "ild</w>": 5873, "COMINIUS:</w>": 5874, "breast": 5875, "swords</w>": 5876, "pping,</w>": 5877, "fellow</w>": 5878, "mes.</w>": 5879, "those</w>": 5880, "va</w>": 5881, "call": 5882, "wo,</w>": 5883, "ch</w>": 5884, "this?</w>": 5885, "roy.</w>": 5886, "speak</w>": 5887, "roof</w>": 5888, "R": 5889, "fall</w>": 5890, "cut</w>": 5891, "ses.</w>": 5892, "cast</w>": 5893, "re</w>": 5894, "please": 5895, "pale,</w>": 5896, "lovely</w>": 5897, "wise,</w>": 5898, "veness</w>": 5899, "relled</w>": 5900, "fun": 5901, "ominous</w>": 5902, "gasp</w>": 5903, "omans": 5904, "stili": 5905, "herit</w>": 5906, "tito": 5907, "ze</w>": 5908, "fou": 5909, "measure</w>": 5910, "ceable</w>": 5911, "eved</w>": 5912, "wild</w>": 5913, "bey:</w>": 5914, "dom,</w>": 5915, "tory,</w>": 5916, "sat?</w>": 5917, "alle": 5918, "dad</w>": 5919, "their</w>": 5920, "dinally</w>": 5921, "bite</w>": 5922, "villan": 5923, "nee</w>": 5924, "Ini": 5925, "hallon": 5926, "monastery</w>": 5927, "teache": 5928, "dit</w>": 5929, "purpose": 5930, "base:</w>": 5931, "W": 5932, "trac": 5933, "bearer": 5934, "ds,</w>": 5935, "rone,</w>": 5936, "money": 5937, "Provost:</w>": 5938, "rate</w>": 5939, "rosts</w>": 5940, "kes:</w>": 5941, "millo's</w>": 5942, "babes</w>": 5943, "on.</w>": 5944, "Boun": 5945, "store": 5946, "ching,</w>": 5947, "neyed</w>": 5948, "its,</w>": 5949, "shee": 5950, "deadly</w>": 5951, "ches,</w>": 5952, "vy</w>": 5953, "packet</w>": 5954, "fate,</w>": 5955, "ead,</w>": 5956, "tigon": 5957, "retire,</w>": 5958, "mes:</w>": 5959, "heri": 5960, "Than</w>": 5961, "gerou": 5962, "laster</w>": 5963, "diseased</w>": 5964, "breasts</w>": 5965, "rees</w>": 5966, "dental": 5967, "ANNE:</w>": 5968, "bare</w>": 5969, "From</w>": 5970, "renounce": 5971, "ming</w>": 5972, "linen,</w>": 5973, "mightily.</w>": 5974, "linen</w>": 5975, "mitigate</w>": 5976, "rouse</w>": 5977, "onesty</w>": 5978, "cloven</w>": 5979, "devised</w>": 5980, "BAPTISTA:</w>": 5981, "billow": 5982, "ever": 5983, "ats,</w>": 5984, "sabella": 5985, "penitently</w>": 5986, "liest.</w>": 5987, "colle": 5988, "disposition</w>": 5989, "lourish,</w>": 5990, "loves</w>": 5991, "MER": 5992, "tenth,</w>": 5993, "light,</w>": 5994, "ppere": 5995, "pulet</w>": 5996, "upper</w>": 5997, "tithe's</w>": 5998, "hellish</w>": 5999, "alli": 6000, "War": 6001, "ght:</w>": 6002, "profitab": 6003, "tentri": 6004, "island</w>": 6005, "ses</w>": 6006, "vant:</w>": 6007, "Saracen": 6008, "fully</w>": 6009, "eyeli": 6010, "adopt</w>": 6011, "profoun": 6012, "arise</w>": 6013, "lar": 6014, "child.</w>": 6015, "Gol": 6016, "chid</w>": 6017, "ken.</w>": 6018, "mightily,</w>": 6019, "<unk>": 6020, "purposes!</w>": 6021, "che": 6022, "kind?</w>": 6023, "ments</w>": 6024, "mpositi": 6025, "rens</w>": 6026, "ning</w>": 6027, "ishe": 6028, "piring</w>": 6029, "trades</w>": 6030, "cell</w>": 6031, "gratulate</w>": 6032, "ballad-": 6033, "In</w>": 6034, "has</w>": 6035, "twi": 6036, "vener": 6037, "pour": 6038, "graceless</w>": 6039, "ther</w>": 6040, "an:</w>": 6041, "Sad-": 6042, "cabin,</w>": 6043, "Res": 6044, "jour": 6045, "land,</w>": 6046, "youth,</w>": 6047, "pparel": 6048, "moul": 6049, "lack,</w>": 6050, "top,</w>": 6051, "stal": 6052, "reatened</w>": 6053, "aches!</w>": 6054, "ded</w>": 6055, "beat,</w>": 6056, "vow</w>": 6057, "sil": 6058, "alif": 6059, "Thi": 6060, "darest</w>": 6061, "shadow": 6062, "dishonest</w>": 6063, "gain'd</w>": 6064, "away,</w>": 6065, "Tar": 6066, "sealing</w>": 6067, "nearest</w>": 6068, "Resig": 6069, "ompey.</w>": 6070, "forerun</w>": 6071, "vey</w>": 6072, "nou": 6073, "winged</w>": 6074, "vited</w>": 6075, "sul</w>": 6076, "cester,</w>": 6077, "hastily</w>": 6078, "Beat</w>": 6079, "Len": 6080, "prostrate</w>": 6081, "race:</w>": 6082, "sary</w>": 6083, "MIL": 6084, "bald</w>": 6085, "Besh": 6086, "strue</w>": 6087, "tory</w>": 6088, "shaf": 6089, "pack": 6090, "ir</w>": 6091, "mile,</w>": 6092, "cure,</w>": 6093, "hath,</w>": 6094, "mary</w>": 6095, "Gentle": 6096, "ack.</w>": 6097, "propor": 6098, "mourer</w>": 6099, "surely</w>": 6100, "das</w>": 6101, "sent:</w>": 6102, "counter</w>": 6103, "los": 6104, "stra": 6105, "read": 6106, "reste": 6107, "spoon": 6108, "ken": 6109, "meads,</w>": 6110, "lace</w>": 6111, "cene</w>": 6112, "IV:</w>": 6113, "cla": 6114, "plaster": 6115, "peace</w>": 6116, "ghter</w>": 6117, "ight;</w>": 6118, "ter": 6119, "mand,</w>": 6120, "aris.</w>": 6121, "delights</w>": 6122, "Fore</w>": 6123, "sun</w>": 6124, "In,</w>": 6125, "al": 6126, "mistoo": 6127, "means;</w>": 6128, "dish,</w>": 6129, "cupati": 6130, "visiting</w>": 6131, "miles;</w>": 6132, "mal</w>": 6133, "verity</w>": 6134, "one</w>": 6135, "ckingha": 6136, "lu": 6137, "compla": 6138, "bents</w>": 6139, "Madam</w>": 6140, "herite": 6141, "pates,</w>": 6142, "merely,</w>": 6143, "ith.</w>": 6144, "retires</w>": 6145, "file": 6146, "mit,</w>": 6147, "profanati": 6148, "vise:</w>": 6149, "tolerable</w>": 6150, "yi": 6151, "then</w>": 6152, "ville,</w>": 6153, "les.</w>": 6154, "lethar": 6155, "rish": 6156, "fares</w>": 6157, "op": 6158, "ad:</w>": 6159, "en:</w>": 6160, "say,</w>": 6161, "peevish</w>": 6162, "upiter": 6163, "whole</w>": 6164, "reate,</w>": 6165, "hack'd</w>": 6166, "risten'd</w>": 6167, "tising</w>": 6168, "surer": 6169, "peal</w>": 6170, "misin": 6171, "prate,</w>": 6172, "feste": 6173, "sing": 6174, "desperation</w>": 6175, "tis,</w>": 6176, "hut</w>": 6177, "day</w>": 6178, "plus,</w>": 6179, "meat;</w>": 6180, "rutu": 6181, "ne.</w>": 6182, "cini": 6183, "lighten": 6184, "ellow</w>": 6185, "compare,</w>": 6186, "DUCHESS</w>": 6187, "revell": 6188, "pret": 6189, "stur": 6190, "wal": 6191, "beti": 6192, "hent</w>": 6193, "den": 6194, "gally</w>": 6195, "alo,</w>": 6196, "ighing": 6197, "ath": 6198, "trin": 6199, "tale": 6200, "east:</w>": 6201, "to.</w>": 6202, "unex": 6203, "seat!</w>": 6204, "aster": 6205, "waned</w>": 6206, "each,</w>": 6207, "meal": 6208, "cation</w>": 6209, "kinder</w>": 6210, "wit": 6211, "touse</w>": 6212, "leaden</w>": 6213, "pest</w>": 6214, "fan": 6215, "aboun": 6216, "thes?</w>": 6217, "propose</w>": 6218, "dition</w>": 6219, "dall": 6220, "fit,</w>": 6221, "space,</w>": 6222, "Re": 6223, "nories:</w>": 6224, "spout": 6225, "weating</w>": 6226, "bes": 6227, "cad": 6228, "spread;</w>": 6229, "mel</w>": 6230, "miraculous</w>": 6231, "whores,</w>": 6232, "between": 6233, "isurely</w>": 6234, "cared</w>": 6235, "dearest</w>": 6236, "at:</w>": 6237, "be,</w>": 6238, "wise:</w>": 6239, "feasts</w>": 6240, "lin": 6241, "at": 6242, "thily,</w>": 6243, "ceit</w>": 6244, "steaded</w>": 6245, "LON": 6246, "right.</w>": 6247, "bethought</w>": 6248, "nive</w>": 6249, "histor": 6250, "How</w>": 6251, "new": 6252, "plate,</w>": 6253, "restituti": 6254, "ado</w>": 6255, "shearer": 6256, "Proper": 6257, "with,</w>": 6258, "kens</w>": 6259, "alit": 6260, "wheel</w>": 6261, "rest": 6262, "Lor": 6263, "rity</w>": 6264, "tire": 6265, "comes": 6266, "rist,</w>": 6267, "priest</w>": 6268, "ately.</w>": 6269, "male": 6270, "quital": 6271, "myself</w>": 6272, "chastise": 6273, "V": 6274, "belli": 6275, "estion</w>": 6276, "LE": 6277, "sits</w>": 6278, "lie.</w>": 6279, "erily,</w>": 6280, "reta": 6281, "pitol": 6282, "we</w>": 6283, "ROS": 6284, "ligen": 6285, "rate,</w>": 6286, "gested</w>": 6287, "fare</w>": 6288, "not,</w>": 6289, "faces.</w>": 6290, "omp": 6291, "reverent</w>": 6292, "cit</w>": 6293, "kins</w>": 6294, "sure</w>": 6295, "resists</w>": 6296, "atin.</w>": 6297, "safe.</w>": 6298, "lead</w>": 6299, "ceale": 6300, "strings</w>": 6301, "pleading</w>": 6302, "reature": 6303, "Be</w>": 6304, "self": 6305, "tori": 6306, "ine,</w>": 6307, "fare": 6308, "esar": 6309, "dollar": 6310, "GREMIO:</w>": 6311, "had.</w>": 6312, "'</w>": 6313, "babes!</w>": 6314, "sey</w>": 6315, "tered</w>": 6316, "abate</w>": 6317, "peop": 6318, "fees?</w>": 6319, "ringing</w>": 6320, "spire</w>": 6321, "brate</w>": 6322, "mates.</w>": 6323, "thus'</w>": 6324, "mit.</w>": 6325, "Senator": 6326, "are</w>": 6327, "spen": 6328, "meat</w>": 6329, "stereness</w>": 6330, "gout,</w>": 6331, "qui": 6332, "reading</w>": 6333, "sa</w>": 6334, "trull,</w>": 6335, "mit": 6336, "entire</w>": 6337, "cabin</w>": 6338, "lories,</w>": 6339, "whore.</w>": 6340, "fights,</w>": 6341, "a</w>": 6342, "cise.</w>": 6343, "comp": 6344, "gi'</w>": 6345, "sists</w>": 6346, "vigour": 6347, "date</w>": 6348, "mentor": 6349, "fell": 6350, "about!</w>": 6351, "east.</w>": 6352, "carou": 6353, "swore</w>": 6354, "ding,</w>": 6355, "poli": 6356, "palace": 6357, "belie</w>": 6358, "EL": 6359, "mons</w>": 6360, "ristol</w>": 6361, "stom": 6362, "baf": 6363, ",": 6364, "mart</w>": 6365, "aring</w>": 6366, "wash": 6367, "rilling</w>": 6368, "stinate.</w>": 6369, "gain": 6370, "vin": 6371, "honester</w>": 6372, "foul</w>": 6373, "pleasing,</w>": 6374, "he,</w>": 6375, "ath,</w>": 6376, "deser": 6377, "hun": 6378, "home;</w>": 6379, "thus!</w>": 6380, "wither</w>": 6381, "opens</w>": 6382, "terer": 6383, "comes.</w>": 6384, "mellow": 6385, "bed</w>": 6386, "tower</w>": 6387, "inevitable</w>": 6388, "devil": 6389, "T:</w>": 6390, "jested</w>": 6391, "lines;</w>": 6392, "llowing</w>": 6393, "four": 6394, "sar": 6395, "fading": 6396, "ights</w>": 6397, "gone.</w>": 6398, "graf": 6399, "arely</w>": 6400, "isterous,</w>": 6401, "sour": 6402, "cupis": 6403, "tri": 6404, "desire": 6405, "PAULINA:</w>": 6406, "med</w>": 6407, "stringed</w>": 6408, "reathe</w>": 6409, "ison:</w>": 6410, "teran": 6411, "onourable</w>": 6412, "olate": 6413, "suppose</w>": 6414, "hered</w>": 6415, "Ha": 6416, "easter": 6417, "womanish</w>": 6418, "head:</w>": 6419, "filed</w>": 6420, "bunes?</w>": 6421, "choleri": 6422, "vourites</w>": 6423, "punish,</w>": 6424, "prolo": 6425, "Tale": 6426, "alenti": 6427, "choly.</w>": 6428, "wisest:</w>": 6429, "trine</w>": 6430, "rest:</w>": 6431, "junc": 6432, "bor": 6433, "eye</w>": 6434, "owed</w>": 6435, "An": 6436, "none": 6437, "senis": 6438, "cullis": 6439, "gras": 6440, "calus,</w>": 6441, "date.</w>": 6442, "even.</w>": 6443, "Give</w>": 6444, "rost:</w>": 6445, "trade": 6446, "bone": 6447, "ominous.</w>": 6448, "mean,</w>": 6449, "nell,</w>": 6450, "therea</w>": 6451, "fille": 6452, "was,</w>": 6453, "puller</w>": 6454, "lover": 6455, "lacks</w>": 6456, "LI": 6457, "ir": 6458, "bating</w>": 6459, "iling": 6460, "acks</w>": 6461, "stone": 6462, "happily</w>": 6463, "event": 6464, "reth</w>": 6465, "ore,</w>": 6466, "shone</w>": 6467, "bate</w>": 6468, "Dou": 6469, "daughter</w>": 6470, "rat": 6471, "reeling</w>": 6472, "une": 6473, "dine</w>": 6474, "count.</w>": 6475, "stig": 6476, "hearer": 6477, "cus.</w>": 6478, "palace,</w>": 6479, "lood</w>": 6480, "dered</w>": 6481, "hire.</w>": 6482, "GREY:</w>": 6483, "sister,</w>": 6484, "woman,</w>": 6485, "beaten": 6486, "noon:</w>": 6487, "ment!</w>": 6488, "cen": 6489, "FRO": 6490, "ery</w>": 6491, "Bor": 6492, "way</w>": 6493, "irer</w>": 6494, "reacherous</w>": 6495, "main.</w>": 6496, "ET": 6497, "east</w>": 6498, "tru": 6499, "weat</w>": 6500, "E:</w>": 6501, "he": 6502, "chaste</w>": 6503, "hath.</w>": 6504, "lla": 6505, "mps</w>": 6506, "mould</w>": 6507, "cat?</w>": 6508, "A</w>": 6509, "rine": 6510, "fe.</w>": 6511, "bunes</w>": 6512, "moreland</w>": 6513, "go</w>": 6514, "lest</w>": 6515, "BUCKINGHAM:</w>": 6516, "b": 6517, "ree.</w>": 6518, "ret!</w>": 6519, "pale.</w>": 6520, "lovest</w>": 6521, "bune.</w>": 6522, "jouncing</w>": 6523, "shown</w>": 6524, "Whereat</w>": 6525, "fit.</w>": 6526, "ight.</w>": 6527, "Lent</w>": 6528, "plate.</w>": 6529, "pens</w>": 6530, "ab": 6531, "worl": 6532, "wine": 6533, "take</w>": 6534, "cus</w>": 6535, "sighing</w>": 6536, "ce.</w>": 6537, "spell</w>": 6538, "whore": 6539, "ta": 6540, "duly</w>": 6541, "dearest,</w>": 6542, "peaces.</w>": 6543, "holes!</w>": 6544, "his": 6545, "spare": 6546, "cau": 6547, "dst</w>": 6548, "besti": 6549, "death</w>": 6550, "fuse</w>": 6551, "placed</w>": 6552, "feasting": 6553, "woo'd.</w>": 6554, "severe.</w>": 6555, "retired</w>": 6556, "know": 6557, "right!</w>": 6558, "pla": 6559, "omes</w>": 6560, "heads,</w>": 6561, "uries,</w>": 6562, "rever": 6563, "peasan": 6564, "gentle</w>": 6565, "vily</w>": 6566, "mat</w>": 6567, "abeth,</w>": 6568, "fee</w>": 6569, "learer</w>": 6570, "riton</w>": 6571, "ves!</w>": 6572, "cour</w>": 6573, "Upon</w>": 6574, "CARD": 6575, "caster,</w>": 6576, "LOR": 6577, "vile</w>": 6578, "ease</w>": 6579, "hush": 6580, "ck.</w>": 6581, "resig": 6582, "seas?</w>": 6583, "vest!</w>": 6584, "alone": 6585, "meaner</w>": 6586, "eath</w>": 6587, "BER": 6588, "LEY:</w>": 6589, "least,</w>": 6590, "aches:</w>": 6591, "mire</w>": 6592, "ppeared</w>": 6593, "sul": 6594, "pran": 6595, "story</w>": 6596, "PET": 6597, "gig": 6598, "coming": 6599, "riting,</w>": 6600, "entan": 6601, "nest:</w>": 6602, "else</w>": 6603, "whining</w>": 6604, "itigation</w>": 6605, "charit": 6606, "linger": 6607, "venan": 6608, "bur": 6609, "eyes.</w>": 6610, "alighted</w>": 6611, "speak.</w>": 6612, "fast.</w>": 6613, "d?</w>": 6614, "gery</w>": 6615, "lory</w>": 6616, "dispropor": 6617, "pe.</w>": 6618, "veri": 6619, "tens</w>": 6620, "monaster": 6621, "lackey.</w>": 6622, "owes;</w>": 6623, "words</w>": 6624, "pun": 6625, "stes": 6626, "nab": 6627, "eaning,</w>": 6628, "rope": 6629, "whither": 6630, "bit": 6631, "lier": 6632, "true</w>": 6633, "speaks</w>": 6634, "hell,</w>": 6635, "maculate</w>": 6636, "IST": 6637, "twill</w>": 6638, "tise.</w>": 6639, "sun": 6640, "pretex": 6641, "esu": 6642, "safely</w>": 6643, "titu": 6644, "seri": 6645, "ruled</w>": 6646, "jur": 6647, "lenten</w>": 6648, "dases,</w>": 6649, "sho": 6650, "ater": 6651, "leans</w>": 6652, "displease</w>": 6653, "telligent</w>": 6654, "mit;</w>": 6655, "ing</w>": 6656, "eyesight</w>": 6657, "pulet!</w>": 6658, "Who</w>": 6659, "bitrating</w>": 6660, "thimb": 6661, "he.</w>": 6662, "comon": 6663, "vised</w>": 6664, "cheer": 6665, "sack</w>": 6666, "fasting</w>": 6667, "iger": 6668, "lean.</w>": 6669, "ero</w>": 6670, "owes</w>": 6671, "what?</w>": 6672, "rown</w>": 6673, "lowest,</w>": 6674, "bar</w>": 6675, "how</w>": 6676, "outwe": 6677, "ford,</w>": 6678, "gasus.</w>": 6679, "so.</w>": 6680, "stere": 6681, "y.</w>": 6682, "within</w>": 6683, "ison": 6684, "ouler</w>": 6685, "stly</w>": 6686, "pillar": 6687, "trade,</w>": 6688, "went</w>": 6689, "eyes?</w>": 6690, "ashes,</w>": 6691, "reatly</w>": 6692, "many</w>": 6693, "mell": 6694, "puted</w>": 6695, "omans.</w>": 6696, "fights</w>": 6697, "di": 6698, "composition</w>": 6699, "houl": 6700, "ley,</w>": 6701, "U": 6702, "loves!</w>": 6703, "hests,</w>": 6704, "orac": 6705, "spe": 6706, "ves,</w>": 6707, "was;</w>": 6708, "gun": 6709, "seles": 6710, "Hastings</w>": 6711, "vines": 6712, "woo'": 6713, "rabi": 6714, "wit:</w>": 6715, "babi": 6716, "tent</w>": 6717, "displa": 6718, "four</w>": 6719, "onely,</w>": 6720, "thing": 6721, "visitati": 6722, "under": 6723, "bloo": 6724, "fire.</w>": 6725, "cholar": 6726, "ates</w>": 6727, "boon,</w>": 6728, "zen,</w>": 6729, "then": 6730, "celesti": 6731, "cout": 6732, "last!</w>": 6733, "Good</w>": 6734, "tonight;</w>": 6735, "miral": 6736, "cherishing": 6737, "een</w>": 6738, "ale": 6739, "dal</w>": 6740, "veying</w>": 6741, "pallab": 6742, "INA:</w>": 6743, "chari": 6744, "sonally</w>": 6745, "lesh</w>": 6746, "s": 6747, "ous,</w>": 6748, "plus</w>": 6749, "tell,</w>": 6750, "mplati": 6751, "hast,</w>": 6752, "k,</w>": 6753, "pread</w>": 6754, "rowing": 6755, "diste": 6756, "eless</w>": 6757, "poul": 6758, "choler</w>": 6759, "ile</w>": 6760, "stentation</w>": 6761, "ighten": 6762, "shore,</w>": 6763, "vate": 6764, "VI:</w>": 6765, "again</w>": 6766, "A:</w>": 6767, "Proser": 6768, "centi": 6769, "other</w>": 6770, "'Though</w>": 6771, "out?</w>": 6772, "base</w>": 6773, "cere": 6774, "pparent,</w>": 6775, "sh,</w>": 6776, "Though</w>": 6777, "key</w>": 6778, "rani": 6779, "pest": 6780, "nest</w>": 6781, "rel": 6782, "leared</w>": 6783, "aleri": 6784, "cited</w>": 6785, "mained</w>": 6786, "nack": 6787, "del": 6788, "virtu": 6789, "anishe": 6790, "shun</w>": 6791, "line</w>": 6792, "jealous</w>": 6793, "ppiness</w>": 6794, "kening</w>": 6795, "penury,</w>": 6796, "dateless</w>": 6797, "dead": 6798, "inous,</w>": 6799, "distan": 6800, "me</w>": 6801, "of": 6802, "Bishop": 6803, "rupulous</w>": 6804, "seven.</w>": 6805, "fore</w>": 6806, "stom</w>": 6807, "come;</w>": 6808, "dull": 6809, "risten": 6810, "feed</w>": 6811, "sol": 6812, "that:</w>": 6813, "profaneness</w>": 6814, "cho</w>": 6815, "son</w>": 6816, "moun": 6817, "hore</w>": 6818, "ler</w>": 6819, "reatens</w>": 6820, "mad.</w>": 6821, "vator": 6822, "itor": 6823, "tile</w>": 6824, "menace</w>": 6825, "coffin'd</w>": 6826, "voi": 6827, "tise,</w>": 6828, "wa": 6829, "haste.</w>": 6830, "hares;</w>": 6831, "never</w>": 6832, "aris</w>": 6833, "hither,</w>": 6834, "visit</w>": 6835, "itra": 6836, "woman:</w>": 6837, "sith</w>": 6838, "Another</w>": 6839, "lent</w>": 6840, "Money's</w>": 6841, "him;</w>": 6842, "shoul": 6843, "Her</w>": 6844, "ire</w>": 6845, "uthor": 6846, "res</w>": 6847, "being</w>": 6848, "Bore</w>": 6849, "asta": 6850, "seen,</w>": 6851, "le": 6852, "During</w>": 6853, "hastes</w>": 6854, "ppe,</w>": 6855, "politan,</w>": 6856, "piti": 6857, "reasure</w>": 6858, "sententi": 6859, "olently</w>": 6860, "ellist;</w>": 6861, "pu": 6862, "prac": 6863, "chop</w>": 6864, "'t.</w>": 6865, "san": 6866, "ven:</w>": 6867, "mallest.</w>": 6868, "twigs</w>": 6869, "tal": 6870, "it;</w>": 6871, "roy's</w>": 6872, "hate</w>": 6873, "state,</w>": 6874, ",--</w>": 6875, "cheated</w>": 6876, "trary</w>": 6877, "gely</w>": 6878, "dulous</w>": 6879, "shouts</w>": 6880, "sure,</w>": 6881, "desire</w>": 6882, "labour": 6883, "ollo": 6884, "unity</w>": 6885, "Sure</w>": 6886, "alou": 6887, "ish,</w>": 6888, "soon,</w>": 6889, "natures:</w>": 6890, "come": 6891, "dering</w>": 6892, "sire,</w>": 6893, "Yor": 6894, "rite</w>": 6895, "m</w>": 6896, "Har": 6897, "peace:</w>": 6898, "lop": 6899, "whisper": 6900, "wer": 6901, "make</w>": 6902, "stir,</w>": 6903, "gra": 6904, "desired</w>": 6905, "deaf": 6906, "millo": 6907, "tellu": 6908, "kin</w>": 6909, "drach": 6910, "sight:</w>": 6911, "san</w>": 6912, "villa": 6913, "lister": 6914, "entering,</w>": 6915, "gin": 6916, "tops</w>": 6917, "respe": 6918, "Thorough</w>": 6919, "coloured</w>": 6920, "honourab": 6921, "dispra": 6922, "clasp": 6923, "mature</w>": 6924, "yea</w>": 6925, "cester": 6926, "seasonable</w>": 6927, "les": 6928, "master,</w>": 6929, "Thin": 6930, "profanation</w>": 6931, "lies.</w>": 6932, "bon": 6933, "co's</w>": 6934, "Here": 6935, "biting</w>": 6936, "POMPEY:</w>": 6937, "Sear": 6938, "leansed</w>": 6939, "sure.</w>": 6940, "mathemati": 6941, "two": 6942, "Resol": 6943, "tired</w>": 6944, "cking</w>": 6945, "mbar": 6946, "ret": 6947, "las,</w>": 6948, "tion</w>": 6949, "mate,</w>": 6950, "fast": 6951, "west,</w>": 6952, "fill": 6953, "Nay,</w>": 6954, "herits</w>": 6955, "him</w>": 6956, "saf": 6957, "Gon": 6958, "duti": 6959, "catri": 6960, "desty</w>": 6961, "rope</w>": 6962, "enth": 6963, "nish</w>": 6964, "linest</w>": 6965, "dispara": 6966, "eel": 6967, "ning,</w>": 6968, "thundering</w>": 6969, "whispering,</w>": 6970, "store.</w>": 6971, "keen,</w>": 6972, "sins</w>": 6973, "'T": 6974, "headed</w>": 6975, "feather</w>": 6976, "now</w>": 6977, "love.</w>": 6978, "cke": 6979, "lash": 6980, "stab": 6981, "dit": 6982, "Sey": 6983, "upon</w>": 6984, "th,</w>": 6985, "mpres": 6986, "rite,</w>": 6987, "heal": 6988, "cerit": 6989, "morrow</w>": 6990, "riest:</w>": 6991, "perished</w>": 6992, "cup</w>": 6993, "tenting</w>": 6994, "mates;</w>": 6995, "promise.</w>": 6996, "comes!</w>": 6997, "hol": 6998, "hales</w>": 6999, "us,</w>": 7000, "fines</w>": 7001, "fel": 7002, "breath,</w>": 7003, "Anon": 7004, "Best</w>": 7005, "gurer</w>": 7006, "ling,</w>": 7007, "linen.</w>": 7008, "along</w>": 7009, "supreme</w>": 7010, "rey</w>": 7011, "eles": 7012, "ce</w>": 7013, "rous</w>": 7014, "pat": 7015, "ROMEO:</w>": 7016, "ley?</w>": 7017, "pp": 7018, "tering": 7019, "ighton</w>": 7020, "pur": 7021, "men:</w>": 7022, "gol": 7023, "parent.</w>": 7024, "oppose</w>": 7025, "leven</w>": 7026, "opening</w>": 7027, "forenoon</w>": 7028, "They,</w>": 7029, "Here</w>": 7030, "reel</w>": 7031, "woful</w>": 7032, "careles": 7033, "ited</w>": 7034, "they</w>": 7035, "bary,</w>": 7036, "see,</w>": 7037, "LAND:</w>": 7038, "tack.</w>": 7039, "wearing,</w>": 7040, "cup,</w>": 7041, "ispose</w>": 7042, "PROSPERO:</w>": 7043, "bestra": 7044, "omit": 7045, "tomorrow": 7046, "mable</w>": 7047, "reland</w>": 7048, "profane.</w>": 7049, "jo": 7050, "darest.</w>": 7051, "ilan.</w>": 7052, "pate</w>": 7053, "gul": 7054, "for": 7055, "cater": 7056, "displeasure,</w>": 7057, "The": 7058, "rou": 7059, "caling</w>": 7060, "ST": 7061, "fered</w>": 7062, "frighte": 7063, "Whi": 7064, "brary</w>": 7065, "life,</w>": 7066, "between.</w>": 7067, "banished</w>": 7068, "tente": 7069, "cats,</w>": 7070, "igest</w>": 7071, "elevated</w>": 7072, "GRUMIO:</w>": 7073, "vor</w>": 7074, "celerity</w>": 7075, "head,</w>": 7076, "bu": 7077, "spirit!</w>": 7078, "coral</w>": 7079, "quire</w>": 7080, "ren</w>": 7081, "toge": 7082, "minal</w>": 7083, "First</w>": 7084, "Bear</w>": 7085, "west:</w>": 7086, "devo": 7087, "roper": 7088, "post</w>": 7089, "weat?</w>": 7090, "spo": 7091, "mit:</w>": 7092, "a": 7093, "rother</w>": 7094, "prevente": 7095, "M": 7096, "figured</w>": 7097, "proof": 7098, "compare": 7099, "mits</w>": 7100, "est?</w>": 7101, "jest;</w>": 7102, "shin.</w>": 7103, "int</w>": 7104, "vest;</w>": 7105, "ine": 7106, "sights</w>": 7107, "past": 7108, "follow": 7109, "buried</w>": 7110, "last?</w>": 7111, "tarists</w>": 7112, "go.</w>": 7113, "retan</w>": 7114, "mpest": 7115, "hould</w>": 7116, "mporary</w>": 7117, "geli": 7118, "ruly.</w>": 7119, "reat;</w>": 7120, "fil": 7121, "ans?</w>": 7122, "cises</w>": 7123, "isa": 7124, "were</w>": 7125, "Eng": 7126, "Come,</w>": 7127, "gratis,</w>": 7128, "kind": 7129, "houting</w>": 7130, "them.</w>": 7131, "rother,</w>": 7132, "aright.</w>": 7133, "geable</w>": 7134, "peru": 7135, "ino": 7136, "eller</w>": 7137, "figure</w>": 7138, "surety</w>": 7139, "ith": 7140, "isture</w>": 7141, "vellest:</w>": 7142, "morali": 7143, "vigour</w>": 7144, "several</w>": 7145, "Su": 7146, "Penelope": 7147, "whi": 7148, "istake</w>": 7149, "werable</w>": 7150, "fest</w>": 7151, "Bea": 7152, "Bour": 7153, "Right.</w>": 7154, "bachelor": 7155, "dive</w>": 7156, "iron": 7157, "dead,</w>": 7158, "polish": 7159, "tenan": 7160, "year</w>": 7161, "thens</w>": 7162, "fee": 7163, "ching": 7164, "lone</w>": 7165, "out.</w>": 7166, "ne'er</w>": 7167, "Unin": 7168, "fringe</w>": 7169, "fire</w>": 7170, "upon.</w>": 7171, "tales.</w>": 7172, "eves?</w>": 7173, "Sel": 7174, "told</w>": 7175, "sourest</w>": 7176, "death.</w>": 7177, "honest;</w>": 7178, "vanit": 7179, "sigh": 7180, "pleasure": 7181, "fires</w>": 7182, "cent;</w>": 7183, "gely,</w>": 7184, "trate</w>": 7185, "kest</w>": 7186, "resi": 7187, "head's</w>": 7188, "lest!</w>": 7189, "safer</w>": 7190, "fris": 7191, "without": 7192, "Hath</w>": 7193, "merciless</w>": 7194, "filled</w>": 7195, "meritable</w>": 7196, "filling</w>": 7197, "then.</w>": 7198, "'The</w>": 7199, "ex": 7200, "springs</w>": 7201, "bunes:</w>": 7202, "aris'</w>": 7203, "FRAN": 7204, "gel": 7205, "mala": 7206, "topping</w>": 7207, "gain,</w>": 7208, "Or</w>": 7209, "thin": 7210, "galley": 7211, "vising": 7212, "pron": 7213, "ise.</w>": 7214, "Fore": 7215, "ine</w>": 7216, "keys</w>": 7217, "onour</w>": 7218, "louted</w>": 7219, "rough</w>": 7220, "L": 7221, "theme,</w>": 7222, "preten": 7223, "dallied</w>": 7224, "moniti": 7225, "ad?</w>": 7226, "hale,</w>": 7227, "spring,</w>": 7228, "rin,</w>": 7229, "wallowed</w>": 7230, "cite": 7231, "y;</w>": 7232, "millo</w>": 7233, "aches.</w>": 7234, "visi": 7235, "resh</w>": 7236, "main": 7237, "pure": 7238, "it!</w>": 7239, "See": 7240, "don'd</w>": 7241, "moo": 7242, "comest:</w>": 7243, "st:</w>": 7244, "thus.</w>": 7245, "ori": 7246, "pente": 7247, "Con": 7248, "polluti": 7249, "canopi": 7250, "ER": 7251, "My</w>": 7252, "stupid</w>": 7253, "dares,</w>": 7254, "pulets</w>": 7255, "Maries</w>": 7256, "Cast": 7257, "tonight?</w>": 7258, "Here.</w>": 7259, "string": 7260, "des!</w>": 7261, "whitest</w>": 7262, "worthy</w>": 7263, "bade</w>": 7264, "oppres": 7265, "closely</w>": 7266, "soun": 7267, "uto.</w>": 7268, "dom</w>": 7269, "sado.</w>": 7270, "wit.</w>": 7271, "mon'd</w>": 7272, "grace,</w>": 7273, "beest</w>": 7274, "penury</w>": 7275, "cuting,</w>": 7276, "ces!</w>": 7277, "whe": 7278, "beasts,</w>": 7279, "iron,</w>": 7280, "bats,</w>": 7281, "waste</w>": 7282, "canst</w>": 7283, "na": 7284, "parati": 7285, "traces</w>": 7286, "chasing</w>": 7287, "folly.</w>": 7288, "rather</w>": 7289, "lat;</w>": 7290, "prison.</w>": 7291, "sear</w>": 7292, "me": 7293, "rese": 7294, "gary</w>": 7295, "reats,</w>": 7296, "IS": 7297, "MENENIUS:</w>": 7298, "seven</w>": 7299, "beri": 7300, "row</w>": 7301, "lenes": 7302, "ear": 7303, "gentle,</w>": 7304, "tes</w>": 7305, "cked</w>": 7306, "sabella</w>": 7307, "mary,</w>": 7308, "dower": 7309, "pig": 7310, "hen,</w>": 7311, "best": 7312, "lit</w>": 7313, "fate</w>": 7314, "CORIOLANUS:</w>": 7315, "sac": 7316, "do's</w>": 7317, "sent": 7318, "compel</w>": 7319, "vey?</w>": 7320, "steeled</w>": 7321, "mputati": 7322, "start</w>": 7323, "omprising</w>": 7324, "beast:</w>": 7325, "fooleries</w>": 7326, "nightingale.</w>": 7327, "Cast</w>": 7328, "mouthed</w>": 7329, "gratitu": 7330, "brother</w>": 7331, "ONT": 7332, "it</w>": 7333, "merchan": 7334, "ut</w>": 7335, "eet</w>": 7336, "vid</w>": 7337, "dire": 7338, "laboured</w>": 7339, "faces?</w>": 7340, "ing,</w>": 7341, "Do'": 7342, "singing</w>": 7343, "mon</w>": 7344, "mother,</w>": 7345, "ent?</w>": 7346, "graft</w>": 7347, "chou": 7348, "pastoral": 7349, "ood</w>": 7350, "lord,</w>": 7351, "spring</w>": 7352, "from</w>": 7353, "vely</w>": 7354, "pital": 7355, "gomery,</w>": 7356, "wine</w>": 7357, "stop</w>": 7358, "nerab": 7359, "bey.</w>": 7360, "ney": 7361, "berea": 7362, "bellie": 7363, "displeasure</w>": 7364, "dull</w>": 7365, "lace": 7366, "sweet</w>": 7367, "elen</w>": 7368, "bable</w>": 7369, "mest": 7370, "puppet</w>": 7371, "les</w>": 7372, "ne</w>": 7373, "bo": 7374, "sab": 7375, "ret?</w>": 7376, "none.</w>": 7377, "spirit</w>": 7378, "malig": 7379, "caco": 7380, "wasted</w>": 7381, "Nor</w>": 7382, "billete": 7383, "events,</w>": 7384, "done": 7385, "head.</w>": 7386, "sunder</w>": 7387, "res;</w>": 7388, "solute</w>": 7389, "solace</w>": 7390, "tis.</w>": 7391, "south,</w>": 7392, "sight": 7393, "mol": 7394, "near": 7395, "that?</w>": 7396, "ched</w>": 7397, "dishonesty</w>": 7398, "tutor</w>": 7399, "din</w>": 7400, "canon.</w>": 7401, "perish": 7402, "Lu": 7403, "cking": 7404, "pulled</w>": 7405, "estini": 7406, "HAM:</w>": 7407, "happy</w>": 7408, "mace;</w>": 7409, "entitle</w>": 7410, "pastures'</w>": 7411, "seven,</w>": 7412, "by</w>": 7413, "mired</w>": 7414, "morelan": 7415, "testa": 7416, "dealings</w>": 7417, "tista</w>": 7418, "base.</w>": 7419, "super": 7420, "zened</w>": 7421, "non</w>": 7422, "reation</w>": 7423, "kes.</w>": 7424, "'s</w>": 7425, "reen:</w>": 7426, "pleasure,</w>": 7427, "velling</w>": 7428, "made.</w>": 7429, "bouted</w>": 7430, "feeling,</w>": 7431, "Bere": 7432, "coop": 7433, "dur": 7434, "pronounce:</w>": 7435, "tell</w>": 7436, "het</w>": 7437, "clou": 7438, "place:</w>": 7439, "ore": 7440, "counts</w>": 7441, "o's</w>": 7442, "weening</w>": 7443, "RICHARD</w>": 7444, "politi": 7445, "gently</w>": 7446, "woful": 7447, "heres,</w>": 7448, "thereat</w>": 7449, "leen": 7450, "ruth": 7451, "low": 7452, "mation</w>": 7453, "Say,</w>": 7454, "gab": 7455, "desire.</w>": 7456, "foulest</w>": 7457, "little</w>": 7458, "nourish": 7459, "hili": 7460, "Se": 7461, "geese:</w>": 7462, "mes</w>": 7463, "great</w>": 7464, "ying</w>": 7465, "wear</w>": 7466, "ompey,</w>": 7467, "heritan": 7468, "fane</w>": 7469, "vas": 7470, "proper": 7471, "ison.</w>": 7472, "bones,</w>": 7473, "ans'</w>": 7474, "distaf": 7475, "Bores</w>": 7476, "enou": 7477, "compoun": 7478, "thest</w>": 7479, "yes,</w>": 7480, "le,</w>": 7481, "released</w>": 7482, "statute,</w>": 7483, "fold</w>": 7484, "mean</w>": 7485, "poster": 7486, "peace": 7487, "seas.</w>": 7488, "iled</w>": 7489, "wit;</w>": 7490, "shear": 7491, "deserving": 7492, "ash": 7493, "comeliness</w>": 7494, "severely</w>": 7495, "fen.</w>": 7496, "mear": 7497, "means.</w>": 7498, "hoo": 7499, "sever": 7500, "yet</w>": 7501, "of,</w>": 7502, "lads</w>": 7503, "retor": 7504, "lur": 7505, "lour": 7506, "my;</w>": 7507, "Haled</w>": 7508, "chen": 7509, "roni": 7510, "nani": 7511, "this:</w>": 7512, "come?</w>": 7513, "aches,</w>": 7514, "Inesti": 7515, "lath,</w>": 7516, "atomi": 7517, "wares</w>": 7518, "bally</w>": 7519, "evised</w>": 7520, "senate</w>": 7521, "these,</w>": 7522, "digested</w>": 7523, "wits,</w>": 7524, "e</w>": 7525, "another</w>": 7526, "bes:</w>": 7527, "foretell</w>": 7528, "ladi": 7529, "garet,</w>": 7530, "n'd</w>": 7531, "sterity</w>": 7532, "shores,</w>": 7533, "what.</w>": 7534, "eat!</w>": 7535, "siness</w>": 7536, "betwit": 7537, "neys</w>": 7538, "run": 7539, "tus</w>": 7540, "parents</w>": 7541, "sped</w>": 7542, "Clow": 7543, "quit</w>": 7544, "lorentine,</w>": 7545, "came</w>": 7546, "measuring</w>": 7547, "means,</w>": 7548, "you?</w>": 7549, "quir": 7550, "pet</w>": 7551, "pompous</w>": 7552, "high</w>": 7553, "solely</w>": 7554, "goned</w>": 7555, "purity</w>": 7556, "sheathe</w>": 7557, "daun": 7558, "anatomy</w>": 7559, "hole.</w>": 7560, "cheered</w>": 7561, "verier</w>": 7562, "jol": 7563, "Revi": 7564, "fool</w>": 7565, "purpose</w>": 7566, "lean,</w>": 7567, "won.</w>": 7568, "spreading</w>": 7569, "wisely.</w>": 7570, "des'</w>": 7571, "ol</w>": 7572, "profits,</w>": 7573, "Be": 7574, "Beli": 7575, "gradation</w>": 7576, "ven.</w>": 7577, "dowe": 7578, "hire</w>": 7579, "lack": 7580, "est": 7581, "nable</w>": 7582, "somely.</w>": 7583, "olate</w>": 7584, "lord.</w>": 7585, "ullus</w>": 7586, "fed</w>": 7587, "reason</w>": 7588, "juries</w>": 7589, "ving": 7590, "cor": 7591, "season</w>": 7592, "vou": 7593, "fin": 7594, "mine.</w>": 7595, "hereafter</w>": 7596, "honey</w>": 7597, "olation</w>": 7598, "revol": 7599, "ckest</w>": 7600, "ligent,</w>": 7601, "abor": 7602, "sprites,</w>": 7603, "ture</w>": 7604, "rule</w>": 7605, "hor": 7606, "m": 7607, "fight;</w>": 7608, "see</w>": 7609, "mall,</w>": 7610, "stu": 7611, "lovel": 7612, "valley,</w>": 7613, "fell,</w>": 7614, "door</w>": 7615, "earest</w>": 7616, "uncrown</w>": 7617, "feeling": 7618, "tell": 7619, "Lear": 7620, "cast.</w>": 7621, "wear": 7622, "mise</w>": 7623, "vines</w>": 7624, "homi": 7625, "soldier</w>": 7626, "can.</w>": 7627, "lier</w>": 7628, "tings</w>": 7629, "what,</w>": 7630, "tou": 7631, "list": 7632, "fit</w>": 7633, "in:</w>": 7634, "polle": 7635, "Rome</w>": 7636, "him:</w>": 7637, "repor": 7638, "nings</w>": 7639, "shop": 7640, "seat:</w>": 7641, "oman:</w>": 7642, "shine</w>": 7643, "reason": 7644, "hope": 7645, "lif": 7646, "sor": 7647, "entered</w>": 7648, "tereth</w>": 7649, "respite</w>": 7650, "Relent!</w>": 7651, "fests</w>": 7652, "strate</w>": 7653, "homely</w>": 7654, "ber": 7655, "ld</w>": 7656, "holy</w>": 7657, "newer</w>": 7658, "nat,</w>": 7659, "posture": 7660, "mbu": 7661, "ch": 7662, "HAN": 7663, "ppery</w>": 7664, "ginalling</w>": 7665, "prey,</w>": 7666, "thily</w>": 7667, "mine": 7668, "lingering</w>": 7669, "lies</w>": 7670, "listen": 7671, "comet</w>": 7672, "rose</w>": 7673, "itor</w>": 7674, "cer": 7675, "seat,</w>": 7676, "sla": 7677, "linen": 7678, "oman": 7679, "fir": 7680, "e,</w>": 7681, "deafening</w>": 7682, "done</w>": 7683, "HEN": 7684, "mune</w>": 7685, "nees:</w>": 7686, "cases,</w>": 7687, "baser</w>": 7688, "ciled</w>": 7689, "best:</w>": 7690, "planet</w>": 7691, "fits</w>": 7692, "ben": 7693, "gates.</w>": 7694, "wary</w>": 7695, "lute.</w>": 7696, "reache": 7697, "yey</w>": 7698, "fires:</w>": 7699, "soon": 7700, "ds:</w>": 7701, "been</w>": 7702, "reas": 7703, "mpe": 7704, "mine,</w>": 7705, "highest!</w>": 7706, "sworest</w>": 7707, "spare.</w>": 7708, "life.</w>": 7709, "cest": 7710, "wast</w>": 7711, "Rise": 7712, "ire": 7713, "derer": 7714, "relati": 7715, "reason,</w>": 7716, "esar</w>": 7717, "fast;</w>": 7718, "county</w>": 7719, "beseech</w>": 7720, "ceive</w>": 7721, "mperately</w>": 7722, "lun": 7723, "howing,</w>": 7724, "every</w>": 7725, "shall</w>": 7726, "unawares:</w>": 7727, "Led</w>": 7728, "sheath": 7729, "fis": 7730, "lads,</w>": 7731, "ves?</w>": 7732, "shire": 7733, "choly</w>": 7734, "bish</w>": 7735, "two</w>": 7736, "entit": 7737, "council": 7738, "charitab": 7739, "ginal</w>": 7740, "mall": 7741, "dower</w>": 7742, "But</w>": 7743, "bull,</w>": 7744, "without</w>": 7745, "ginar": 7746, "misplaces?</w>": 7747, "vit": 7748, "pulet's</w>": 7749, "friends</w>": 7750, "mista": 7751, "mured</w>": 7752, "moral</w>": 7753, "keley</w>": 7754, "past</w>": 7755, "ilor": 7756, "till,</w>": 7757, "real": 7758, "they.</w>": 7759, "shops</w>": 7760, "YORK:</w>": 7761, "porate</w>": 7762, "cast,</w>": 7763, "Edwar": 7764, "lo": 7765, "dowery</w>": 7766, "doning</w>": 7767, "haste</w>": 7768, "gent": 7769, "arest</w>": 7770, "devise.</w>": 7771, "gain</w>": 7772, "itly</w>": 7773, "aci": 7774, "cat</w>": 7775, "reads,</w>": 7776, "ith,</w>": 7777, "below</w>": 7778, "pace": 7779, "mani": 7780, "it,</w>": 7781, "sinister</w>": 7782, "gery,</w>": 7783, "merce</w>": 7784, "villing</w>": 7785, "des:</w>": 7786, "pul": 7787, "NOR": 7788, "woo'd,</w>": 7789, "spright": 7790, "cherish</w>": 7791, "gistrates,</w>": 7792, "shallow": 7793, "tale.</w>": 7794, "aris!</w>": 7795, "mesome,</w>": 7796, "rees:</w>": 7797, "grieve,</w>": 7798, "tach": 7799, "sabel": 7800, "omest</w>": 7801, "might</w>": 7802, "abeth</w>": 7803, "neat,</w>": 7804, "ICH": 7805, "grating</w>": 7806, "hall</w>": 7807, "tive</w>": 7808, "keness</w>": 7809, "Forerun": 7810, "young</w>": 7811, "tily.</w>": 7812, "pare": 7813, "baseness</w>": 7814, "presen": 7815, "'": 7816, "atal</w>": 7817, "AN": 7818, "stom,</w>": 7819, "SICINIUS:</w>": 7820, "mber</w>": 7821, "resist</w>": 7822, "badest</w>": 7823, "bran</w>": 7824, "hastening,</w>": 7825, "earer</w>": 7826, "thunder</w>": 7827, "d!</w>": 7828, "ould</w>": 7829, "ad--</w>": 7830, "rarity</w>": 7831, "disan": 7832, "calus.</w>": 7833, "stomacher": 7834, "wo": 7835, "weariest</w>": 7836, "been,</w>": 7837, "new</w>": 7838, "ram</w>": 7839, "faster</w>": 7840, "Rise</w>": 7841, "despite</w>": 7842, "anon": 7843, "resolute": 7844, "cute": 7845, "IO:</w>": 7846, "ch,</w>": 7847, "follies</w>": 7848, "ppose</w>": 7849, "fability</w>": 7850, "salute": 7851, "spell,</w>": 7852, "lane</w>": 7853, "Why</w>": 7854, "devilish": 7855, "slack</w>": 7856, "ken</w>": 7857, "asting": 7858, "arith": 7859, "spear": 7860, "derous</w>": 7861, "money.</w>": 7862, "ces": 7863, "OF</w>": 7864, "zening</w>": 7865, "before</w>": 7866, "fury</w>": 7867, "ELEY:</w>": 7868, "mperate</w>": 7869, "gin</w>": 7870, "thear": 7871, "cannot</w>": 7872, "kind,</w>": 7873, "sighted</w>": 7874, "sheet</w>": 7875, "vest,</w>": 7876, "lay</w>": 7877, "sely,</w>": 7878, "saline</w>": 7879, "able</w>": 7880, "oli": 7881, "mour</w>": 7882, "gings</w>": 7883, "culli": 7884, "CA": 7885, "oni": 7886, "ES": 7887, "stone,</w>": 7888, "tures</w>": 7889, "mighti": 7890, "gan,</w>": 7891, "Sen": 7892, "CO:</w>": 7893, "tured</w>": 7894, "listen'd</w>": 7895, "bore</w>": 7896, "mad!</w>": 7897, "hast:</w>": 7898, "tering</w>": 7899, "between,</w>": 7900, "ado.</w>": 7901, "gine</w>": 7902, "ena": 7903, "hoop": 7904, "deer</w>": 7905, "reer</w>": 7906, "ks</w>": 7907, "ries</w>": 7908, "files,</w>": 7909, "save</w>": 7910, "beads,</w>": 7911, "LIUS:</w>": 7912, "pull": 7913, "most</w>": 7914, "domini": 7915, "generation</w>": 7916, "nor": 7917, "madly</w>": 7918, "isa</w>": 7919, "nay,</w>": 7920, "lost?</w>": 7921, "presa": 7922, "ran</w>": 7923, "parison,</w>": 7924, "pow": 7925, "distri": 7926, "pute</w>": 7927, "kes'</w>": 7928, "ist</w>": 7929, "terest.</w>": 7930, "wel</w>": 7931, "wenty</w>": 7932, "ador": 7933, "held</w>": 7934, "ne": 7935, "bones!</w>": 7936, "Salis": 7937, "rup</w>": 7938, "late</w>": 7939, "aris,</w>": 7940, "mbraced</w>": 7941, "teach": 7942, "taloon.</w>": 7943, "gistrate,</w>": 7944, "shes.</w>": 7945, "stac": 7946, "sooner</w>": 7947, "adoreth</w>": 7948, "bites;</w>": 7949, "what:</w>": 7950, "cestor": 7951, "es?</w>": 7952, "qu": 7953, "ile.</w>": 7954, "cken</w>": 7955, "disprove</w>": 7956, "LUCENTIO:</w>": 7957, "cheer</w>": 7958, "ceased</w>": 7959, "asins</w>": 7960, "despite,</w>": 7961, "generate,</w>": 7962, "hill": 7963, "gili": 7964, "runawa": 7965, "festi": 7966, "pill": 7967, "ching</w>": 7968, "ilif": 7969, "mpore.</w>": 7970, "wall,</w>": 7971, "OR": 7972, "ho": 7973, "viness</w>": 7974, "soled</w>": 7975, "Pen": 7976, "what!</w>": 7977, "bishop,</w>": 7978, "id</w>": 7979, "ree": 7980, "dead:</w>": 7981, "tino</w>": 7982, "mprison</w>": 7983, "lead,</w>": 7984, "when,</w>": 7985, "would</w>": 7986, "sprites</w>": 7987, "till</w>": 7988, "finest,</w>": 7989, "fur": 7990, "pent's</w>": 7991, "hes": 7992, "hee": 7993, "herit.</w>": 7994, "him.</w>": 7995, "ye,</w>": 7996, "mpart</w>": 7997, "ack'd</w>": 7998, "niture</w>": 7999, "Live</w>": 8000, "pril": 8001, "lords,</w>": 8002, "vate</w>": 8003, "close.</w>": 8004, "gory,</w>": 8005, "utor": 8006, "stomach,</w>": 8007, "bans.</w>": 8008, "LO": 8009, "first</w>": 8010, "whoreson,</w>": 8011, "chase:</w>": 8012, "some</w>": 8013, "Dull,</w>": 8014, "seventeen</w>": 8015, "servi": 8016, "ye": 8017, "tent!</w>": 8018, "lord</w>": 8019, "eas</w>": 8020, "neat?</w>": 8021, "dele": 8022, "it": 8023, "ins</w>": 8024, "boor": 8025, "bey?</w>": 8026, "reat.</w>": 8027, "this;</w>": 8028, "Rome.</w>": 8029, "sity</w>": 8030, "waste,</w>": 8031, "pea": 8032, "traf": 8033, "won</w>": 8034, "best;</w>": 8035, "stones;</w>": 8036, "cery</w>": 8037, "hand</w>": 8038, "prithee,</w>": 8039, "choler": 8040, "prisoner": 8041, "cented</w>": 8042, "mer</w>": 8043, "high,</w>": 8044, "salute</w>": 8045, "bar": 8046, "sheer</w>": 8047, "chine": 8048, "displeasure": 8049, "con</w>": 8050, "boo": 8051, "seni": 8052, "ley:</w>": 8053, "En": 8054, "seasi": 8055, "ges,</w>": 8056, "mell</w>": 8057, "suppor": 8058, "tes,</w>": 8059, "King</w>": 8060, "t?</w>": 8061, "Beneath</w>": 8062, "finiti": 8063, "ath.</w>": 8064, "comest</w>": 8065, "lighted</w>": 8066, "fite": 8067, "ger": 8068, "Relate</w>": 8069, "haste,</w>": 8070, "And</w>": 8071, "ring": 8072, "manac": 8073, "cares,</w>": 8074, "had;</w>": 8075, "derous.</w>": 8076, "himself</w>": 8077, "ranslate</w>": 8078, "rup,</w>": 8079, "gasp,</w>": 8080, "father": 8081, "lor</w>": 8082, "shades</w>": 8083, "twin": 8084, "retirement,</w>": 8085, "O</w>": 8086, "garet;</w>": 8087, "itus</w>": 8088, "weary,</w>": 8089, "omenes;</w>": 8090, "leaden,</w>": 8091, "bees</w>": 8092, "jurati": 8093, "coni": 8094, "den</w>": 8095, "mail": 8096, "teste": 8097, "meats,</w>": 8098, "will,</w>": 8099, "tinent,</w>": 8100, "upiter,</w>": 8101, "very</w>": 8102, "compe": 8103, "profes": 8104, "!": 8105, "stale</w>": 8106, "dispat": 8107, "CLIFF": 8108, "tore</w>": 8109, "ches'</w>": 8110, "mouth</w>": 8111, "itorous</w>": 8112, "G": 8113, "arise,</w>": 8114, "den'd</w>": 8115, "basely</w>": 8116, "eving</w>": 8117, "outrun</w>": 8118, "sting": 8119, "ome</w>": 8120, "mar": 8121, "unclo": 8122, "sub": 8123, "cureless</w>": 8124, "count</w>": 8125, "ven'd</w>": 8126, "don.</w>": 8127, "bis": 8128, "vilely</w>": 8129, "meanings</w>": 8130, "ture,</w>": 8131, "AR": 8132, "Cali": 8133, "profits</w>": 8134, "spur</w>": 8135, "prate": 8136, "gratis.</w>": 8137, "devise,</w>": 8138, "bases;</w>": 8139, "double</w>": 8140, "profane</w>": 8141, "subje": 8142, "chastity</w>": 8143, "Sun</w>": 8144, "dine.</w>": 8145, "&": 8146, "ches</w>": 8147, "Not</w>": 8148, "tunity</w>": 8149, "eror</w>": 8150, "give</w>": 8151, "steel": 8152, "lined</w>": 8153, "good</w>": 8154, "bin": 8155, "dation</w>": 8156, "opes</w>": 8157, "heat?</w>": 8158, "mbal": 8159, "wearing</w>": 8160, "spirit": 8161, "caf": 8162, "at;</w>": 8163, "nill</w>": 8164, "ppa": 8165, "sentinel": 8166, "poll,</w>": 8167, "nine,</w>": 8168, "vor": 8169, "tach</w>": 8170, "thorough</w>": 8171, "who": 8172, "dist": 8173, "merit,</w>": 8174, "deaf,</w>": 8175, "quin</w>": 8176, "senate,</w>": 8177, "abiliti": 8178, "prof": 8179, "tis;</w>": 8180, "youth</w>": 8181, "manes</w>": 8182, "child;</w>": 8183, "Is</w>": 8184, "casion</w>": 8185, "lies;</w>": 8186, "lete</w>": 8187, "ree,</w>": 8188, "alabaster</w>": 8189, "print</w>": 8190, "shouting</w>": 8191, "JULIET:</w>": 8192, "borough</w>": 8193, "night!</w>": 8194, "nona": 8195, "ear</w>": 8196, "us</w>": 8197, "af": 8198, "outham</w>": 8199, "bet": 8200, "riest</w>": 8201, "feck": 8202, "tor": 8203, "spheres</w>": 8204, "III:</w>": 8205, "generally</w>": 8206, "Bene": 8207, "reatest</w>": 8208, "fore": 8209, "dare": 8210, "yous.</w>": 8211, "wholesome</w>": 8212, "ppearan": 8213, "spell": 8214, "religi": 8215, "race,</w>": 8216, "ck</w>": 8217, "Whiles,</w>": 8218, "mand</w>": 8219, "halloo": 8220, "pent,</w>": 8221, "read</w>": 8222, "Go": 8223, "Aurora": 8224, "y,</w>": 8225, "oun": 8226, "bey,</w>": 8227, "reva": 8228, "what": 8229, "Ta": 8230, "pray,</w>": 8231, "dest</w>": 8232, "dead--</w>": 8233, "whose</w>": 8234, "bation</w>": 8235, "has": 8236, "it.</w>": 8237, "shuns</w>": 8238, "home.</w>": 8239, "vise</w>": 8240, "thasar": 8241, "per</w>": 8242, "hollow</w>": 8243, "sery</w>": 8244, "preva": 8245, "bestowed</w>": 8246, "pate.</w>": 8247, "ner</w>": 8248, "right:</w>": 8249, "breather": 8250, "soon.</w>": 8251, "dun,</w>": 8252, "frights</w>": 8253, "ans:</w>": 8254, "aban": 8255, "cas</w>": 8256, "Had</w>": 8257, "eve.</w>": 8258, "list,</w>": 8259, "ired</w>": 8260, "presently</w>": 8261, "hur": 8262, "place,</w>": 8263, "espite</w>": 8264, "lightly</w>": 8265, "love</w>": 8266, "THA": 8267, "cas": 8268, "cee": 8269, "THAN": 8270, "veries</w>": 8271, "sent</w>": 8272, "to'": 8273, "gone": 8274, "cise,</w>": 8275, "ishing</w>": 8276, "Rise,</w>": 8277, "collier": 8278, "ping": 8279, "vestal</w>": 8280, "whom": 8281, "cken'd</w>": 8282, "HORTENSIO:</w>": 8283, "to</w>": 8284, ".'</w>": 8285, "ache": 8286, "traries</w>": 8287, "roy": 8288, "seasons</w>": 8289, "bes?</w>": 8290, "unad": 8291, "mita": 8292, "speak": 8293, "cadel</w>": 8294, "but,</w>": 8295, "mpet</w>": 8296, "spare</w>": 8297, "but</w>": 8298, "bath</w>": 8299, "let,</w>": 8300, "hing</w>": 8301, "vision</w>": 8302, "mely</w>": 8303, "Richard</w>": 8304, "grieves,</w>": 8305, "cents,</w>": 8306, "present?</w>": 8307, "runes": 8308, "slack": 8309, "seas;</w>": 8310, "set</w>": 8311, "walled</w>": 8312, "ste": 8313, "Done</w>": 8314, "esire</w>": 8315, "afore</w>": 8316, "quite.</w>": 8317, "res": 8318, "lore</w>": 8319, "bou": 8320, "womanish": 8321, "displease": 8322, "pronouncing</w>": 8323, "hast": 8324, "cel</w>": 8325, "stest</w>": 8326, "Thur": 8327, "mpore,</w>": 8328, "galli": 8329, "restore.</w>": 8330, "dinal": 8331, "woon": 8332, "heel": 8333, "ath</w>": 8334, "betake</w>": 8335, "cheries:</w>": 8336, "telling": 8337, "fight?</w>": 8338, "woun": 8339, "peace,</w>": 8340, "co": 8341, "curit": 8342, "don,</w>": 8343, "isure": 8344, "noon.</w>": 8345, "re": 8346, "seen</w>": 8347, "night;</w>": 8348, "LADY</w>": 8349, "dening</w>": 8350, "anon</w>": 8351, "wallowing</w>": 8352, "ute": 8353, "ighing</w>": 8354, "bloody</w>": 8355, "merc": 8356, "pate": 8357, "table</w>": 8358, "ating": 8359, "ves.</w>": 8360, "stomer": 8361, "sadly</w>": 8362, "remest</w>": 8363, "gir": 8364, "womb": 8365, "oratory</w>": 8366, "choly,</w>": 8367, "cellor</w>": 8368, "shores</w>": 8369, "lane": 8370, "ke.</w>": 8371, "asten'd</w>": 8372, "meal</w>": 8373, "testati": 8374, "shun": 8375, "gallery</w>": 8376, "fair</w>": 8377, "ity</w>": 8378, "estate.</w>": 8379, "goo": 8380, "rest.</w>": 8381, "asunder</w>": 8382, "foretell": 8383, "g,</w>": 8384, "clasps</w>": 8385, "ries,</w>": 8386, "No</w>": 8387, "EN": 8388, "senger": 8389, "mp,</w>": 8390, "computation</w>": 8391, "bunes'</w>": 8392, "atone": 8393, "ere</w>": 8394, "es;</w>": 8395, "nearest,</w>": 8396, "vari": 8397, "var": 8398, "lat.</w>": 8399, "believe": 8400, "woul": 8401, "ellest</w>": 8402, "shuts</w>": 8403, "venes": 8404, "ror": 8405, "fearing</w>": 8406, "following</w>": 8407, "compact</w>": 8408, "ladly</w>": 8409, "ompey!</w>": 8410, "suppres": 8411, "ID": 8412, "pher": 8413, "ura</w>": 8414, "rit,</w>": 8415, "chens</w>": 8416, "casa</w>": 8417, "minister</w>": 8418, "miring</w>": 8419, "cale": 8420, "Belike</w>": 8421, "ghing</w>": 8422, "well": 8423, "ig": 8424, "ter,</w>": 8425, "gitation</w>": 8426, "sir.</w>": 8427, "life</w>": 8428, "nest,</w>": 8429, "dures</w>": 8430, "key:</w>": 8431, "Relent,</w>": 8432, "roon": 8433, "tite</w>": 8434, "mber": 8435, "feel": 8436, "cases</w>": 8437, "eath,</w>": 8438, "breast;</w>": 8439, "dastar": 8440, "ll": 8441, "ropper": 8442, "sel": 8443, "pent.</w>": 8444, "veab": 8445, "resting</w>": 8446, "outra": 8447, "vately</w>": 8448, "hill,</w>": 8449, "sh": 8450, "promise:</w>": 8451, "alone,</w>": 8452, "gest</w>": 8453, "suries,</w>": 8454, "do": 8455, "chery</w>": 8456, "relieve</w>": 8457, "lean:</w>": 8458, "went;</w>": 8459, "propose.</w>": 8460, "som</w>": 8461, "lovelier</w>": 8462, "holes</w>": 8463, "countan": 8464, "'They</w>": 8465, "howing</w>": 8466, "pril</w>": 8467, "reachery</w>": 8468, "hea": 8469, "mad,</w>": 8470, "daup": 8471, "Han": 8472, "bes,</w>": 8473, "rithee,</w>": 8474, "pitome</w>": 8475, "trable</w>": 8476, "soul</w>": 8477, "main</w>": 8478, "again:</w>": 8479, "into</w>": 8480, "ithal": 8481, "cili": 8482, "last</w>": 8483, "wares?</w>": 8484, "faci": 8485, "mous,</w>": 8486, "Do": 8487, "reath": 8488, "ate.</w>": 8489, "some": 8490, "tino's</w>": 8491, "dati": 8492, "el": 8493, "roses,</w>": 8494, "wholesome,</w>": 8495, "That's</w>": 8496, "ges?</w>": 8497, "unis.</w>": 8498, "fan,</w>": 8499, "mea": 8500, "lost.</w>": 8501, "desti": 8502, "tol": 8503, "spir": 8504, "mai": 8505, "sunder": 8506, "bab": 8507, "allay,</w>": 8508, "ean": 8509, "fooling,</w>": 8510, "tous.</w>": 8511, "patents</w>": 8512, "rier": 8513, "pen</w>": 8514, "Whene'er</w>": 8515, "iry</w>": 8516, "gather</w>": 8517, "mutinous</w>": 8518, "lished</w>": 8519, "n</w>": 8520, "es'</w>": 8521, "within,</w>": 8522, "ser</w>": 8523, "brother,</w>": 8524, "fest,</w>": 8525, "nourishe": 8526, "present</w>": 8527, "ompey;</w>": 8528, "no.</w>": 8529, "devi": 8530, "relan": 8531, "mal": 8532, "rones": 8533, "pped</w>": 8534, "polo": 8535, "abominab": 8536, "more": 8537, "sleeves.</w>": 8538, "utes;</w>": 8539, "perish</w>": 8540, "s.</w>": 8541, "Of</w>": 8542, "losing": 8543, "tily</w>": 8544, "weather": 8545, "gone,</w>": 8546, "willow</w>": 8547, "Man": 8548, "anish</w>": 8549, "nee,</w>": 8550, "P": 8551, "orab": 8552, "ilate,</w>": 8553, "pollo,</w>": 8554, "pra": 8555, "seless</w>": 8556, "grieves</w>": 8557, "line.</w>": 8558, "mallest</w>": 8559, "donati": 8560, "pulet.</w>": 8561, "sur": 8562, "poor</w>": 8563, "mises,</w>": 8564, "man,</w>": 8565, "pon": 8566, "listening": 8567, "fined</w>": 8568, "brat?</w>": 8569, "ness</w>": 8570, "lous</w>": 8571, "pirates,</w>": 8572, "We</w>": 8573, "renow": 8574, "entran": 8575, "you,</w>": 8576, "catest</w>": 8577, "rash": 8578, "sad;</w>": 8579, "tent,</w>": 8580, "kened</w>": 8581, "ELAND:</w>": 8582, "habit,</w>": 8583, "you</w>": 8584, "gero": 8585, "racking</w>": 8586, "She</w>": 8587, "paradise</w>": 8588, "pre": 8589, "bestow</w>": 8590, "mutab": 8591, "sop</w>": 8592, "could</w>": 8593, "lines</w>": 8594, "honour": 8595, "elo": 8596, "ceed</w>": 8597, "fighter": 8598, "mad;</w>": 8599, "opposite</w>": 8600, "tener</w>": 8601, "morou": 8602, "cur</w>": 8603, "'st</w>": 8604, "bunes": 8605, "mul": 8606, "mis.</w>": 8607, "laurel</w>": 8608, "tenti": 8609, "unele": 8610, "ER:</w>": 8611, "mbrace,</w>": 8612, "comi": 8613, "nearer": 8614, "upon,</w>": 8615, "gild</w>": 8616, "garet?</w>": 8617, "uto,</w>": 8618, "billet": 8619, "t,</w>": 8620, "my.</w>": 8621, "sely</w>": 8622, "full,</w>": 8623, "resu": 8624, "pit": 8625, "feature</w>": 8626, "oo": 8627, "Prou": 8628, "Nourish</w>": 8629, "figures</w>": 8630, "raft</w>": 8631, "ile,</w>": 8632, "Tho": 8633, "Gone</w>": 8634, "ris;</w>": 8635, "Revo": 8636, "lost!</w>": 8637, "cated</w>": 8638, "isthink</w>": 8639, "compani": 8640, "enter,</w>": 8641, "event;</w>": 8642, "ilan": 8643, "jelly</w>": 8644, "atel": 8645, "preser": 8646, "irest</w>": 8647, "mean.</w>": 8648, "olab": 8649, "relenting</w>": 8650, "woollen</w>": 8651, "men,</w>": 8652, "rid</w>": 8653, "bus,</w>": 8654, "ditation</w>": 8655, "nell</w>": 8656, "bread!</w>": 8657, "vawar": 8658, "uter": 8659, "hen</w>": 8660, "she": 8661, "ithout</w>": 8662, "doom'd</w>": 8663, "fouler</w>": 8664, "eye.</w>": 8665, "nee.</w>": 8666, "geling": 8667, "easured</w>": 8668, "vast</w>": 8669, "spirits</w>": 8670, "ceited</w>": 8671, "lover</w>": 8672, "dear</w>": 8673, "during": 8674, "prove</w>": 8675, "parab": 8676, "dil": 8677, "orator": 8678, "It</w>": 8679, "CAMILLO:</w>": 8680, "Ser": 8681, "minal": 8682, "pa": 8683, "head?</w>": 8684, "fever": 8685, "mish</w>": 8686, "ppro": 8687, "wh": 8688, "fol": 8689, "allowed</w>": 8690, "cautelous</w>": 8691, "mast?</w>": 8692, "fathom": 8693, "dine": 8694, "San": 8695, "twould</w>": 8696, "your": 8697, "cking,</w>": 8698, "she</w>": 8699, "mean'd</w>": 8700, "his:</w>": 8701, "'d,</w>": 8702, "j": 8703, "mpose</w>": 8704, "disease,</w>": 8705, "uno's</w>": 8706, "abominable</w>": 8707, "mee": 8708, "showest</w>": 8709, "alan": 8710, "as": 8711, "dit:</w>": 8712, "trar": 8713, "jealou": 8714, "packing</w>": 8715, "gan</w>": 8716, "have</w>": 8717, "disease</w>": 8718, "ever</w>": 8719, "fates</w>": 8720, "estate</w>": 8721, "Richar": 8722, "Lord</w>": 8723, "cares.</w>": 8724, "now,</w>": 8725, "prey.</w>": 8726, "sleeves</w>": 8727, "vener</w>": 8728, "shi": 8729, "slee": 8730, "ado": 8731, "readed</w>": 8732, "derer</w>": 8733, "ferently</w>": 8734, "on'd</w>": 8735, "rise": 8736, "dir": 8737, "fist,</w>": 8738, "cks</w>": 8739, "thank</w>": 8740, "nel</w>": 8741, "dishonoured</w>": 8742, "counter": 8743, "reen.</w>": 8744, "Besi": 8745, "sheathed</w>": 8746, "back</w>": 8747, "runes;</w>": 8748, "seated</w>": 8749, "shore.</w>": 8750, "it?</w>": 8751, "Whisper</w>": 8752, "where,</w>": 8753, "Seal</w>": 8754, "mbi": 8755, "ule": 8756, "has!</w>": 8757, "topping,</w>": 8758, "senator</w>": 8759, "ingrate": 8760, "sparing": 8761, "peaches</w>": 8762, "I:</w>": 8763, "sight,</w>": 8764, "solute": 8765, "fit": 8766, "derates,</w>": 8767, "ly</w>": 8768, "min": 8769, "ABR": 8770, "punishe": 8771, "mas": 8772, "dul": 8773, "parison</w>": 8774, "lead": 8775, "rare": 8776, "sell</w>": 8777, "gomer": 8778, "geld</w>": 8779, "desperately</w>": 8780, "desire,</w>": 8781, "fellest</w>": 8782, "lut</w>": 8783, "mile": 8784, "comes:</w>": 8785, "fering": 8786, "Thomas</w>": 8787, "ri": 8788, "Cat": 8789, "shut,</w>": 8790, "LEONTES:</w>": 8791, "venom,</w>": 8792, "isit</w>": 8793, "truly.</w>": 8794, "cks,</w>": 8795, "gin.</w>": 8796, "hel": 8797, "adop": 8798, "play</w>": 8799, "of</w>": 8800, "corous</w>": 8801, "nown</w>": 8802, "more.</w>": 8803, "pulet?</w>": 8804, "IS</w>": 8805, "bat</w>": 8806, "spring": 8807, "mally</w>": 8808, "compen": 8809, "rall": 8810, "cope.</w>": 8811, "car": 8812, "dently</w>": 8813, "name</w>": 8814, "stinate,</w>": 8815, "displeased</w>": 8816, "bath,</w>": 8817, "ingrate.</w>": 8818, "run.</w>": 8819, "prithee.</w>": 8820, "dent,</w>": 8821, "best.</w>": 8822, "pening</w>": 8823, "ns</w>": 8824, "fashi": 8825, "ses'</w>": 8826, "pout</w>": 8827, "to's</w>": 8828, "moment,</w>": 8829, "ishonourable</w>": 8830, "meat.</w>": 8831, "dispor": 8832, "mulle": 8833, "calu": 8834, "homa": 8835, "alas!</w>": 8836, "al</w>": 8837, "moner": 8838, "no</w>": 8839, "news</w>": 8840, "lear</w>": 8841, "sts</w>": 8842, "leader": 8843, "dispen": 8844, "weed</w>": 8845, "ES:</w>": 8846, "dow": 8847, "This</w>": 8848, "rach</w>": 8849, "As</w>": 8850, "isted</w>": 8851, "hori": 8852, "hare,</w>": 8853, "dens</w>": 8854, "presents</w>": 8855, "dates": 8856, "season:</w>": 8857, "kenes": 8858, "fable</w>": 8859, "lete": 8860, "soon</w>": 8861, "huts</w>": 8862, "was</w>": 8863, "stones,</w>": 8864, "vour": 8865, "marigol": 8866, "foolery</w>": 8867, "despite": 8868, "when</w>": 8869, "clo": 8870, "miles,</w>": 8871, "wine.</w>": 8872, "steely</w>": 8873, "rop": 8874, "big,</w>": 8875, "sand,</w>": 8876, "sti": 8877, "wit,</w>": 8878, "destin": 8879, "tention</w>": 8880, "weather</w>": 8881, "heareth</w>": 8882, "cuti": 8883, "count:</w>": 8884, "sully</w>": 8885, "mast!</w>": 8886, "renown</w>": 8887, "lacenti": 8888, "Who,</w>": 8889, "thir": 8890, "garet</w>": 8891, "hadst</w>": 8892, "righting</w>": 8893, "fully.</w>": 8894, "win": 8895, "st's</w>": 8896, "lowest</w>": 8897, "pale</w>": 8898, "nee": 8899, "mperatel": 8900, "say</w>": 8901, "fighting": 8902, "ginati": 8903, "irest": 8904, "ballad,</w>": 8905, "woone": 8906, "breath.</w>": 8907, "present.</w>": 8908, "daring,</w>": 8909, "rosty</w>": 8910, "tentive</w>": 8911, "Below</w>": 8912, "an'd</w>": 8913, "gans</w>": 8914, "ging</w>": 8915, "'d.</w>": 8916, "hopes</w>": 8917, "chat": 8918, "mans</w>": 8919, "elena": 8920, "Una": 8921, "you;</w>": 8922, "cu": 8923, "caster</w>": 8924, "promises</w>": 8925, "ightly</w>": 8926, "thenous</w>": 8927, "Rome:</w>": 8928, "populate</w>": 8929, "der": 8930, "natures</w>": 8931, "fins</w>": 8932, "ron</w>": 8933, "wing</w>": 8934, "Peace</w>": 8935, "hollo": 8936, "ppi": 8937, "brow": 8938, "Whoop,</w>": 8939, "this.</w>": 8940, "Les": 8941, "twere,</w>": 8942, "wack</w>": 8943, "adi": 8944, "dent.</w>": 8945, "ill</w>": 8946, "bine.</w>": 8947, "lineal</w>": 8948, "chor</w>": 8949}}